<unk>	0
<s>	0
</s>	0
,	-1.56239
.	-2.33568
▁д	-2.9458
▁улица	-3.15826
▁город	-3.21027
▁область	-3.39129
▁кв	-3.40614
▁район	-3.85488
а	-4.70787
▁республика	-4.8006
-	-4.82622
▁край	-4.85506
▁село	-4.94935
▁поселок	-5.16069
▁	-5.16209
ский	-5.25854
▁к	-5.40119
▁1	-5.41037
▁2	-5.56752
▁Московская	-5.59028
ий	-5.5972
▁деревня	-5.62751
о	-5.64748
▁Москва	-5.70184
я	-5.75958
▁проспект	-5.80319
т	-5.85297
влд	-5.91499
ая	-5.99236
▁3	-6.05513
▁8	-6.09335
▁территория	-6.09503
▁А	-6.09567
А	-6.10154
▁4	-6.15507
▁Краснодарский	-6.15691
▁5	-6.20978
Петербург	-6.2306
▁Санк	-6.23384
▁10	-6.24609
▁литер	-6.25727
▁6	-6.28997
▁Свердловская	-6.30475
▁помещение	-6.31876
▁7	-6.32949
▁-	-6.39968
▁микрорайон	-6.40518
ская	-6.41154
▁9	-6.41507
▁Татарстан	-6.45165
▁13	-6.45856
▁Башкортостан	-6.46615
▁Ростовская	-6.47099
▁Челябинская	-6.47863
▁переулок	-6.4803
▁15	-6.49685
е	-6.52451
ского	-6.52838
ка	-6.52966
▁1,	-6.53784
▁16	-6.54147
▁11	-6.54335
й	-6.55428
▁12	-6.5782
▁Нижегородская	-6.60641
▁18	-6.63764
▁14	-6.64917
▁рабочий	-6.65669
▁Самарская	-6.67209
▁Ленина	-6.67602
▁19	-6.69265
▁округ	-6.70302
▁20	-6.70441
▁Красноярский	-6.71662
▁Пермский	-6.73202
ый	-6.74645
▁21	-6.75664
▁22	-6.77627
ы	-6.7815
▁17	-6.8031
▁2,	-6.82244
▁Воронежская	-6.82455
▁стр	-6.82618
▁типа	-6.8321
▁Саратовская	-6.84397
▁23	-6.85025
▁24	-6.86501
▁Ленинградская	-6.87921
▁25	-6.88237
▁Кузбасс	-6.89654
▁Кемеровская	-6.89993
▁Новосибирская	-6.91363
▁26	-6.92367
▁Волгоградская	-6.93237
▁Центральная	-6.93688
▁30	-6.96401
▁3,	-6.96766
▁Ставропольский	-6.97314
▁27	-6.97721
▁Советская	-7.00086
▁28	-7.00552
б	-7.01097
и	-7.01558
▁Иркутская	-7.02592
▁Алтайский	-7.02961
▁29	-7.05819
▁СНТ	-7.09436
▁им	-7.1017
▁гараж	-7.12145
▁31	-7.12203
▁32	-7.14156
▁40	-7.14168
▁Омская	-7.14256
на	-7.15998
▁автономн	-7.17333
▁33	-7.18097
▁34	-7.18455
▁50	-7.1935
▁проезд	-7.20415
▁Приморский	-7.21797
▁35	-7.23676
▁36	-7.24109
▁Нижний	-7.24581
▁4,	-7.25581
▁станиц	-7.28349
▁Оренбургская	-7.28654
▁37	-7.29306
▁38	-7.29464
▁Владимирская	-7.30305
▁Мира	-7.32231
▁шоссе	-7.32327
▁Удмуртская	-7.35857
▁Тверская	-7.35874
▁39	-7.36347
▁Краснодар	-7.36673
▁Белгородская	-7.37514
▁бульвар	-7.37815
ое	-7.38103
▁41	-7.40691
Б	-7.41105
▁45	-7.41192
▁Тюменская	-7.41269
▁42	-7.42546
▁44	-7.42687
▁Тульская	-7.42798
▁Новосибирск	-7.43257
▁5,	-7.43435
▁Новгород	-7.43618
▁Ярославская	-7.4365
▁Победы	-7.43923
▁лет	-7.44662
▁43	-7.44921
▁46	-7.46396
▁47	-7.48068
▁48	-7.48518
▁Рязанская	-7.48999
▁Кировская	-7.49048
▁6,	-7.50954
▁Пензенская	-7.51028
ское	-7.51033
▁Екатеринбург	-7.51641
▁49	-7.51904
Мансийск	-7.52844
▁Ханты	-7.52885
▁60	-7.53066
▁Челябинск	-7.53817
▁Калужская	-7.5446
/	-7.55946
▁Омск	-7.5701
▁52	-7.57919
▁51	-7.57967
▁Брянская	-7.58283
▁Казань	-7.5927
▁Вологодская	-7.59291
▁Чувашская	-7.59413
▁Югра	-7.59996
▁Автономный	-7.59997
▁53	-7.62301
▁Хабаровский	-7.62707
▁54	-7.6383
▁Самара	-7.64347
▁Молодежная	-7.64677
▁Ульяновская	-7.64808
▁Курская	-7.65083
▁7,	-7.6518
▁55	-7.65972
▁Воронеж	-7.66062
▁Школьная	-7.67484
▁Октябрьская	-7.67816
▁хутор	-7.67858
▁зд	-7.68419
▁56	-7.68431
▁Томская	-7.68623
▁Гагарина	-7.6871
▁Дагестан	-7.69281
▁57	-7.69903
▁Красноярск	-7.70122
ь	-7.71762
▁ГСК	-7.72369
▁58	-7.72395
▁Ивановская	-7.7269
▁Тамбовская	-7.72706
▁2-	-7.73188
в	-7.73726
▁Архангельская	-7.73782
▁1-	-7.74051
▁59	-7.74746
▁Саратов	-7.75387
▁Пермь	-7.77011
▁Ростов	-7.77021
▁Садовая	-7.78114
▁Липецкая	-7.78471
Дону	-7.79992
▁Калининградская	-7.80105
▁Смоленская	-7.80136
▁Новая	-7.80497
▁Комсомольская	-7.80899
▁Крым	-7.81132
д	-7.83151
▁Уфа	-7.83978
▁62	-7.84375
с	-7.8457
▁61	-7.84901
▁70	-7.84945
▁В	-7.85543
▁64	-7.86941
▁9,	-7.87092
▁63	-7.87156
▁65	-7.88782
ов	-7.89072
▁Октября	-7.89077
/1	-7.8972
▁Набережная	-7.90329
Н	-7.9064
▁Северная	-7.92719
▁Кирова	-7.92792
▁11,	-7.9331
▁66	-7.93838
▁Астраханская	-7.95126
▁68	-7.96191
▁12,	-7.97296
▁М	-7.97355
▁67	-7.97673
▁Коми	-7.97944
▁Усть	-7.98322
▁Новгородская	-7.98836
ки	-7.98966
▁Амурская	-8.00352
▁Саха	-8.0062
▁Лесная	-8.00643
▁Курганская	-8.00813
▁Забайкальский	-8.01264
▁Псковская	-8.01267
▁69	-8.01776
▁Орловская	-8.02171
▁Волгоград	-8.02367
),	-8.02423
Якути	-8.02584
инский	-8.02813
г	-8.02896
▁/	-8.03607
▁Тюмень	-8.04679
▁Первомайская	-8.0498
ой	-8.07126
▁72	-8.07196
▁Октябрьский	-8.07351
▁квартал	-8.07379
▁товарищество	-8.07412
п	-8.07476
▁Эл	-8.07745
▁Строителей	-8.08347
▁71	-8.08386
▁С	-8.0908
▁Марий	-8.10597
▁Б	-8.10676
▁Мурманская	-8.10807
▁Карла	-8.11321
▁74	-8.11752
н	-8.12744
▁73	-8.13611
▁Мордови	-8.14003
▁75	-8.14809
▁К	-8.1517
ова	-8.1518
▁Тольятти	-8.16026
комн	-8.16357
▁14,	-8.16715
▁76	-8.16727
к	-8.16997
/2	-8.17846
▁78	-8.17864
▁Буряти	-8.18312
садовое	-8.18602
В	-8.18919
▁Костромская	-8.19679
▁77	-8.19915
▁Калинина	-8.2004
▁79	-8.20698
▁Барнаул	-8.21281
▁Чеченская	-8.21746
▁80	-8.222
▁Маркса	-8.22683
ная	-8.23691
ия	-8.26013
▁Томск	-8.26179
▁П	-8.27061
▁Ленинский	-8.28215
1	-8.28437
цы	-8.29208
▁3-	-8.30397
▁Ижевск	-8.30798
▁17,	-8.31547
▁Заречная	-8.3164
▁Рязань	-8.32047
▁Всеволожский	-8.32089
▁81	-8.33941
▁82	-8.34223
▁Калининград	-8.35343
▁поселение	-8.35891
▁84	-8.3614
▁Киров	-8.36723
▁83	-8.36934
▁Юбилейная	-8.379
▁Владивосток	-8.38235
▁85	-8.38571
▁Маршала	-8.40077
▁Г	-8.40366
Ярославль	-8.40801
ва	-8.40811
▁Зеленая	-8.40836
▁Пушкина	-8.41364
▁Карелия	-8.41671
▁Горького	-8.41772
га	-8.41777
▁Ульяновск	-8.42967
▁86	-8.4298
▁90	-8.43142
▁87	-8.43396
▁88	-8.43522
▁Иркутск	-8.43915
▁Дзержинского	-8.44541
▁Ново	-8.44946
-2	-8.46426
▁Магнитогорск	-8.466
▁Центральный	-8.46842
▁Пролетарская	-8.4745
м	-8.47497
▁89	-8.47702
▁Ставрополь	-8.48507
Г	-8.48727
овка	-8.48932
▁Хабаровск	-8.4922
▁Новый	-8.49261
▁Сахалинская	-8.49781
▁Новокузнецк	-8.5156
▁Академик	-8.52385
ж	-8.52511
-1	-8.52821
▁Чебоксар	-8.52959
▁Кабардин	-8.53238
▁Челны	-8.53295
▁Набережны	-8.5371
▁Пионерская	-8.53951
▁улус	-8.54051
ово	-8.54357
▁92	-8.54493
▁91	-8.54781
▁Нижнекамск	-8.54897
Ненецк	-8.54974
го	-8.55411
▁100	-8.5572
▁Н	-8.5578
▁Брянск	-8.56242
▁Хакаси	-8.56298
▁Осети	-8.56433
Балкарская	-8.56566
ых	-8.56592
▁Л	-8.56778
▁Красная	-8.57379
▁Алан	-8.57497
2	-8.5771
▁95	-8.57935
▁Полевая	-8.58258
▁Оренбург	-8.58294
▁93	-8.58494
▁94	-8.58511
▁Кемерово	-8.5921
▁Волжский	-8.59293
▁Д	-8.6
▁Бор	-8.60584
▁96	-8.6082
▁97	-8.61116
С	-8.61132
▁Ямало	-8.61849
▁Пенз	-8.62131
з	-8.62178
ина	-8.62258
▁Астрахань	-8.62531
▁Балаших	-8.62882
▁Курск	-8.63718
х	-8.63898
▁98	-8.6409
▁гаражно	-8.6424
/3	-8.6499
ш	-8.65191
ное	-8.65653
▁Калуга	-8.65757
строительный	-8.65901
▁Космонавтов	-8.65914
▁99	-8.66328
▁Тула	-8.66485
инская	-8.67928
▁Луговая	-8.67941
3	-8.68594
▁Красногорск	-8.68664
▁Адыге	-8.69284
▁Ор	-8.69313
ково	-8.69627
▁Красноармейская	-8.69836
▁Большая	-8.70429
▁Тагил	-8.70716
▁101	-8.70833
▁Павловский	-8.71567
кова	-8.71828
▁Московский	-8.72059
▁Липецк	-8.72085
▁Парковая	-8.72197
▁Солнечная	-8.72428
▁кооп	-8.72445
▁Красный	-8.72584
ль	-8.73709
▁102	-8.74074
летия	-8.74835
▁Заводская	-8.75281
▁105	-8.7554
▁Чапаева	-8.75948
▁103	-8.76998
4	-8.77708
▁107	-8.77712
▁Верхняя	-8.77769
▁Дружбы	-8.78991
кино	-8.79052
▁104	-8.79407
ла	-8.79519
▁Тверь	-8.80265
▁Новороссийск	-8.80391
▁Раменское	-8.80898
▁Любер	-8.81029
▁Советский	-8.81296
▁О	-8.81315
ный	-8.81335
▁108	-8.81487
ск	-8.8175
р	-8.81993
▁Подольск	-8.82066
▁106	-8.82149
▁Железнодорожная	-8.82385
ино	-8.82652
▁110	-8.8296
И	-8.83858
▁Белгород	-8.85123
▁Генерал	-8.85261
ен	-8.85387
▁Севастополь	-8.85561
ева	-8.85601
▁109	-8.86152
л	-8.86336
▁Свердлова	-8.86387
▁Первомайский	-8.86744
▁И	-8.88381
▁Мытищи	-8.8873
К	-8.88749
▁113	-8.89593
▁112	-8.89719
▁Южная	-8.90153
▁Энгельс	-8.90475
▁111	-8.90585
7	-8.90874
▁набережная	-8.91125
Уд	-8.91259
ёл	-8.91874
▁114	-8.92007
▁Комсомольский	-8.92211
▁Свободы	-8.92795
▁Курган	-8.93497
▁118	-8.93817
▁4-	-8.9385
▁Смоленск	-8.94071
▁Химки	-8.9424
ма	-8.94762
▁Якутск	-8.94881
▁Рабочая	-8.94972
▁116	-8.95598
▁Улан	-8.95687
▁массив	-8.95718
▁Стерлитамак	-8.96435
▁115	-8.96529
▁Сургут	-8.97206
▁Фрунзе	-8.97279
▁117	-8.97539
▁Каменск	-8.97924
ье	-8.97995
▁Южный	-8.98617
Ола	-8.98786
▁Северный	-8.98854
ер	-8.9889
ур	-8.991
▁Владимир	-8.99187
5	-8.99427
ошкар	-8.99881
▁Кировский	-9.00022
▁Саранск	-9.00322
П	-9.0045
▁120	-9.00497
▁Старый	-9.00568
▁Тамбов	-9.01231
М	-9.01385
▁Таганрог	-9.02619
овская	-9.02669
▁Мая	-9.02866
ул	-9.02887
▁119	-9.02913
ей	-9.0312
▁Чкалова	-9.03475
Д	-9.03899
ра	-9.04582
▁Мичурина	-9.04999
▁122	-9.05019
да	-9.05301
▁Степная	-9.05747
▁Чита	-9.05981
ок	-9.06059
▁Восточная	-9.0613
/4	-9.06421
енко	-9.0653
▁Иваново	-9.06587
▁121	-9.06673
▁123	-9.06675
▁Т	-9.06906
▁с	-9.07349
▁Рыбинский	-9.07439
▁Колхозная	-9.07958
▁Камчатский	-9.07991
▁Лермонтова	-9.08834
▁Маяковского	-9.08945
▁Карачаев	-9.09059
▁Спортивная	-9.10063
▁Благовещенск	-9.10081
▁Вологда	-9.10295
▁124	-9.10863
▁Энгельса	-9.11124
ф	-9.11273
▁Вокзальная	-9.1161
▁Комсомольск	-9.12454
▁жилой	-9.13068
▁Владикавказ	-9.13481
▁линия	-9.13923
Черкесская	-9.14105
▁Интернациональн	-9.14154
▁Гоголя	-9.14379
ар	-9.14379
▁Мурманск	-9.14697
▁125	-9.1472
Амур	-9.15166
нский	-9.15292
ин	-9.153
▁соор	-9.15714
▁5-	-9.15855
О	-9.1589
▁Петрозаводск	-9.15926
▁Гатчинский	-9.16542
▁126	-9.16853
▁Красногвардей	-9.17222
ля	-9.17277
▁128	-9.17546
▁Великий	-9.17828
▁Одинцовский	-9.17882
▁Архангельск	-9.18384
▁127	-9.18513
▁Куйбышева	-9.18554
ец	-9.18822
Коммунистическая	-9.1891
6	-9.19018
▁130	-9.19401
ево	-9.19555
но	-9.1962
▁Дмитров	-9.19656
9	-9.20089
▁Береговая	-9.20322
▁Комарова	-9.20847
▁З	-9.2112
▁Наро	-9.21171
▁Р	-9.21824
▁131	-9.22181
▁станция	-9.22282
▁Анапский	-9.23008
8	-9.23287
▁Железногорск	-9.23542
▁133	-9.23858
ек	-9.24302
▁129	-9.24587
▁Яр	-9.24593
/5	-9.24643
овский	-9.24765
▁Орехово	-9.25033
▁Оскол	-9.25154
▁городской	-9.25553
▁Жукова	-9.25709
▁Героев	-9.25809
▁Александровский	-9.25849
▁Выборгский	-9.25922
▁Нижняя	-9.26242
▁137	-9.2642
▁Сыктывкар	-9.26537
▁132	-9.26642
ли	-9.26666
▁Ломоносова	-9.27083
▁Красноармейский	-9.27133
▁Энтузиастов	-9.27174
▁Южно	-9.27533
евская	-9.27803
▁134	-9.28176
▁За	-9.28202
▁Ангарск	-9.28322
▁Нагорная	-9.28461
▁Островского	-9.28603
▁Марта	-9.2862
кина	-9.28623
▁Череповец	-9.29037
▁Королев	-9.29128
ко	-9.29184
▁135	-9.29194
▁139	-9.29305
▁Кострома	-9.29373
▁Клин	-9.29471
ёлков	-9.2972
▁138	-9.30099
▁Лесной	-9.30274
▁Орджоникидзе	-9.30447
▁У	-9.31092
▁136	-9.31347
у	-9.31457
▁Совхозная	-9.31493
▁Грозн	-9.32348
▁Речная	-9.32373
▁140	-9.32477
▁Рыбинск	-9.32725
▁Псков	-9.3311
▁Ворошилова	-9.33132
▁Крупской	-9.33393
Т	-9.33485
▁Посад	-9.34203
▁Зеленодольский	-9.34475
▁142	-9.35508
▁Кооперативная	-9.3551
▁Бийск	-9.35923
▁144	-9.36007
▁Березовский	-9.36133
▁Каменский	-9.36579
▁Малая	-9.36803
▁141	-9.36839
▁Братск	-9.37689
ел	-9.37689
▁Ю	-9.37966
▁Е	-9.38024
▁Нижневартовск	-9.38126
▁Дачная	-9.38766
▁площадь	-9.38849
ого	-9.39082
▁Луначарского	-9.39211
▁143	-9.3934
▁Чехова	-9.39822
он	-9.39839
▁Партизанская	-9.40262
▁Миасс	-9.40821
▁Чехов	-9.40932
/6	-9.41036
цев	-9.41608
▁Коломна	-9.41721
▁Пятигорск	-9.4177
Фоминск	-9.41854
)	-9.41967
▁Жуковский	-9.42038
Зуево	-9.42436
▁Ш	-9.42563
▁Труда	-9.42651
ор	-9.42918
▁Домодедов	-9.4292
▁Я	-9.43045
▁ВЛКСМ	-9.43486
▁Альметьевский	-9.43972
иха	-9.44014
▁Старая	-9.44229
▁Дзержинск	-9.44302
Уральский	-9.44453
▁Королева	-9.44722
▁Калмыки	-9.44762
▁Алтай	-9.45936
ри	-9.46165
▁Юбилейный	-9.46279
ья	-9.46343
▁Одинцово	-9.46389
▁Орск	-9.46475
▁Некрасова	-9.46598
▁Шахты	-9.47319
Сахалинск	-9.47345
▁Энергетиков	-9.47438
▁Златоуст	-9.47855
▁Ка	-9.4786
▁Строительная	-9.47887
▁6-	-9.47902
ан	-9.48011
▁148	-9.48129
▁146	-9.48837
ц	-9.48839
▁Уссурийск	-9.48846
▁150	-9.48921
▁Шевченко	-9.49235
▁Березники	-9.49241
▁145	-9.49527
▁Александра	-9.49634
▁Зеленоград	-9.49675
▁Ступино	-9.49838
▁152	-9.50107
▁Новочеркасск	-9.50249
▁Ф	-9.50742
▁Ингуш	-9.50953
▁Истра	-9.50972
▁Шоссейная	-9.51132
▁149	-9.51208
▁Ленинградский	-9.51368
им	-9.5139
▁Солнечный	-9.51662
лы	-9.5204
▁Салават	-9.52062
▁По	-9.52288
▁Ты	-9.52542
▁Х	-9.52598
▁147	-9.52724
ле	-9.53048
етия	-9.53076
▁151	-9.53091
▁Озерная	-9.53128
▁Большой	-9.54339
-3	-9.54499
▁Серпухов	-9.54568
ты	-9.54926
▁Армавир	-9.55077
▁ряд	-9.55276
▁Матросова	-9.5535
евка	-9.55525
▁Толстого	-9.55634
ос	-9.55667
ес	-9.55984
▁Балаков	-9.56072
▁154	-9.56358
▁Суворова	-9.56368
ги	-9.56617
▁Ивановский	-9.56744
▁155	-9.56998
▁Нижне	-9.57206
▁Прокопьевск	-9.5721
▁Кур	-9.57292
▁Абакан	-9.57322
их	-9.5741
▁Армии	-9.57482
▁Котлас	-9.57663
▁Менделеев	-9.57726
▁Адмирал	-9.5777
строителей	-9.57894
▁Ногинск	-9.57938
▁Кар	-9.58036
▁Максима	-9.58521
▁Иркутский	-9.5894
▁Воскресенск	-9.59885
Камчатский	-9.60188
▁Чернышевского	-9.60236
▁Анап	-9.6034
ик	-9.60512
▁Первоуральск	-9.60534
▁157	-9.60537
▁153	-9.60852
▁Старо	-9.60914
▁Заречный	-9.61179
▁Попова	-9.61193
▁Верхний	-9.61292
▁156	-9.61315
ша	-9.61345
▁Новое	-9.6138
ши	-9.61428
▁Западная	-9.61706
▁Петропавловск	-9.61801
▁Новоч	-9.62007
▁Белгородский	-9.62097
▁Калининский	-9.6226
▁Сосновский	-9.6229
▁Волгодонск	-9.62576
▁Гаражный	-9.62822
▁кооператив	-9.63234
▁Туапсинский	-9.63493
▁Николая	-9.63651
▁Сызран	-9.63763
▁160	-9.63807
ун	-9.63845
▁тракт	-9.6394
ни	-9.63989
▁Северодвинск	-9.64036
▁Красн	-9.64129
▁Нефтекамск	-9.6437
▁Степана	-9.64516
ю	-9.64554
▁Строитель	-9.64619
▁Лазо	-9.64627
▁Ковров	-9.65065
чи	-9.65259
са	-9.65298
▁163	-9.65411
▁Почтовая	-9.65464
▁159	-9.65861
▁158	-9.66002
▁Норильск	-9.66228
ус	-9.6669
▁Майкоп	-9.66811
ев	-9.6705
овая	-9.67176
▁Альметьевск	-9.6735
▁165	-9.67379
▁Металлургов	-9.67447
▁161	-9.67556
▁Солнечногорск	-9.67566
▁Заводской	-9.67813
▁Зеленодольск	-9.68031
▁Сосновая	-9.68044
▁Завьяловский	-9.68098
ча	-9.68189
▁Дорожная	-9.68258
▁При	-9.68392
▁Дружба	-9.68437
во	-9.68686
лово	-9.68955
▁Большое	-9.69067
▁Нальчик	-9.69361
енский	-9.69706
▁Березовая	-9.69816
▁Урицкого	-9.70158
▁162	-9.70613
▁Братьев	-9.70637
▁Под	-9.70659
▁167	-9.70667
▁Разина	-9.70866
▁Володарского	-9.70914
▁Димитрова	-9.71282
▁Электросталь	-9.71478
Л	-9.71628
/7	-9.7176
ской	-9.7183
▁Профсоюзная	-9.72332
▁Махачкал	-9.72466
▁Революции	-9.72478
▁Ж	-9.72641
▁Находк	-9.72642
▁Весенняя	-9.72688
▁171	-9.72854
▁164	-9.72917
▁Чайковского	-9.72993
▁169	-9.73009
▁Пригородный	-9.73678
ч	-9.73783
▁Камышин	-9.73857
▁Верхне	-9.74117
▁Кол	-9.74227
ук	-9.74366
▁Декабристов	-9.75105
▁Промышленная	-9.75333
ир	-9.7577
▁Орловский	-9.75844
▁Тобольск	-9.75953
▁Коммунистическ	-9.76336
▁Магаданская	-9.76528
▁166	-9.76642
▁Куйбышевский	-9.76706
▁сад	-9.76916
▁168	-9.76999
▁СОСН	-9.77423
▁Ар	-9.7761
▁Кор	-9.77732
▁Подгорная	-9.77853
▁Ц	-9.78319
▁Сергея	-9.78323
▁Са	-9.78422
ре	-9.78701
▁Новоселов	-9.78724
▁Бур	-9.78919
▁Есенина	-9.79144
▁Еврейская	-9.79281
▁Крымский	-9.79855
▁аул	-9.79982
▁170	-9.80017
▁Молодежный	-9.8008
▁Циолковского	-9.80122
овское	-9.8018
▁Городищенский	-9.80216
▁Борович	-9.80345
▁То	-9.80379
▁Ленинск	-9.80682
▁Егорьевск	-9.80945
па	-9.81063
ачный	-9.81445
▁Трудовая	-9.81687
ал	-9.8198
▁Мирный	-9.82024
ЛК	-9.8243
инка	-9.8243
орса	-9.82616
▁Лениногорск	-9.82683
▁Уральская	-9.82794
▁Ухта	-9.82833
▁Михайловский	-9.83042
ст	-9.83154
▁Симферопольский	-9.83158
▁173	-9.83228
ит	-9.83271
щ	-9.83656
/8	-9.83743
▁Пушкино	-9.84009
▁Боровский	-9.84087
Маркса	-9.84114
▁городок	-9.84119
▁176	-9.84151
▁Героя	-9.84175
▁Кавказский	-9.84424
за	-9.8443
▁Вал	-9.84549
ло	-9.84852
▁Лысьв	-9.84966
нд	-9.85048
▁Михайловка	-9.85261
▁Белинского	-9.8529
▁Тихорецкий	-9.85435
▁Белово	-9.85441
Посадский	-9.85581
инское	-9.8579
▁175	-9.86161
▁Поляна	-9.8635
▁Транспортная	-9.86361
▁Приволжский	-9.86468
▁Зеленый	-9.86838
▁177	-9.86931
Машиностроителей	-9.86985
▁172	-9.87059
▁ДНТ	-9.87147
▁Российск	-9.87195
нская	-9.87224
▁7-	-9.87351
ебоксарск	-9.87526
▁Э	-9.87659
▁Ур	-9.87808
▁Комсомола	-9.87811
▁180	-9.87842
▁Ту	-9.87906
▁Руза	-9.88196
▁Петуш	-9.88208
ро	-9.8828
ель	-9.88298
Горького	-9.88305
▁Рубцовск	-9.88331
▁Восточный	-9.8838
▁Копейск	-9.88921
▁40-	-9.89025
▁Новомосковск	-9.89237
▁Петровский	-9.8942
▁179	-9.89561
▁Новомосковский	-9.89569
▁Ессентук	-9.89792
▁Северск	-9.89801
▁Невинномысск	-9.89806
▁Дзержинский	-9.89989
▁Артем	-9.90129
▁Титова	-9.9031
▁Муром	-9.90316
▁Школьный	-9.90535
ти	-9.90753
▁Гор	-9.90758
▁Ногинский	-9.90878
цева	-9.90992
▁Славянский	-9.9108
▁178	-9.91221
▁Кирово	-9.91339
▁Ку	-9.91389
▁Цветочная	-9.91474
▁174	-9.9148
▁Пушкин	-9.91511
▁Обнинск	-9.91544
/9	-9.91653
▁Воткинск	-9.92052
тово	-9.92072
▁Чу	-9.92117
▁Народная	-9.92211
▁Петра	-9.92274
▁181	-9.92312
▁Кириш	-9.92313
▁Ивана	-9.92315
▁На	-9.92509
▁Шпаковск	-9.92563
▁Ленинская	-9.92655
▁Нефтяников	-9.92835
▁Тамбовский	-9.92849
▁СТ	-9.92951
▁Железнодорожный	-9.93
▁Магистральная	-9.93328
▁Зорге	-9.93384
▁СССР	-9.93414
▁185	-9.9345
▁Ал	-9.93536
▁9-	-9.93537
▁Конаковский	-9.93644
▁Сочи	-9.94132
ха	-9.94316
▁Тосненский	-9.94485
▁Кара	-9.94532
▁имени	-9.94645
▁188	-9.94704
▁Герцена	-9.95186
ны	-9.95194
▁183	-9.95578
▁Северо	-9.95605
▁Вяземский	-9.95883
▁Озерск	-9.96005
▁Троицк	-9.96059
▁Киржач	-9.96202
▁Микрорайон	-9.96257
▁Большие	-9.96702
▁Ватутина	-9.96856
▁Кстов	-9.96882
▁Ч	-9.96951
▁Января	-9.97065
▁Батайск	-9.97087
▁Московское	-9.97177
▁Красное	-9.97277
▁Туймазинск	-9.97363
▁Кинель	-9.97414
▁Ки	-9.97429
▁190	-9.97432
▁Тельмана	-9.97514
▁Гурьевский	-9.97615
ново	-9.97631
▁184	-9.9764
▁Ин	-9.9789
▁Междуреченск	-9.97905
▁Пирогов	-9.97935
ицы	-9.97947
ковская	-9.98205
▁Тургенева	-9.98228
оз	-9.98279
▁Реутов	-9.9834
▁Карбышев	-9.98373
▁Ча	-9.98641
▁Им	-9.98668
▁Революционная	-9.98783
▁Лужский	-9.99132
▁182	-9.99313
▁Курчатова	-9.99316
▁189	-9.99318
ут	-9.99543
Е	-9.99562
Кузнецкий	-9.9957
▁и	-9.99643
▁Уфимский	-9.99745
▁Га	-9.99746
▁Уренгой	-9.99944
ня	-9.99975
▁Ейский	-10.0012
▁Западный	-10.0015
▁Ключ	-10.002
Хрустальный	-10.0024
▁Линия	-10.0038
▁Соликамск	-10.0039
▁Светлый	-10.0041
ем	-10.0046
сельское	-10.0052
▁186	-10.008
▁187	-10.0087
▁192	-10.0109
▁Каменка	-10.0119
▁Белорецкий	-10.0133
▁ГК	-10.0144
▁Темрюкский	-10.0163
ман	-10.0175
▁203	-10.0177
▁Волоколамск	-10.0192
▁Павлова	-10.0209
▁Майский	-10.0222
Х	-10.023
▁200	-10.0234
▁Динской	-10.0236
▁Димитровград	-10.0239
▁Углич	-10.0266
▁Терешковой	-10.0267
▁Аксайский	-10.027
▁Северский	-10.0278
▁Богородский	-10.028
▁Ветеранов	-10.0284
▁Новоуральск	-10.0292
▁Рязанский	-10.03
▁Гусь	-10.0306
▁Арзамас	-10.0317
▁191	-10.0331
▁Пышм	-10.0337
ца	-10.0345
▁193	-10.0354
▁Черняхов	-10.036
рово	-10.0365
ган	-10.0368
▁Черногорск	-10.0385
▁Лискинский	-10.0385
▁204	-10.0413
▁Спасский	-10.0413
▁Кудров	-10.0436
Шахтинский	-10.0438
▁Сергиев	-10.0448
ам	-10.0455
лова	-10.0459
цево	-10.0463
▁Лобн	-10.0471
▁Колпино	-10.0473
▁Средне	-10.0486
▁202	-10.0502
▁Ачинск	-10.0509
ди	-10.0509
▁Ба	-10.0524
▁Алексеевский	-10.0561
У	-10.0588
тор	-10.0615
ми	-10.0634
▁195	-10.065
▁Не	-10.066
▁Клубная	-10.0667
▁Можайск	-10.0684
▁Кунгур	-10.0692
▁Пушкинская	-10.0704
▁Звездная	-10.0707
▁Сосновый	-10.0724
Р	-10.0732
▁Кон	-10.0732
▁Об	-10.0735
▁Сарапул	-10.0776
▁194	-10.0782
▁Коммунальная	-10.0784
▁Советской	-10.0798
▁Кропоткин	-10.0809
▁Мурин	-10.0825
ом	-10.0827
▁Тимирязева	-10.0852
Новоусманский	-10.0858
ной	-10.0862
▁Долгопрудн	-10.0868
▁Семилукский	-10.0881
▁Кинешма	-10.0881
▁Гайдара	-10.0895
▁Кутузова	-10.0896
▁Кузнецк	-10.09
▁Воровского	-10.0913
▁Ломоносовский	-10.0932
▁Мичуринский	-10.0966
▁Зеленогорск	-10.0972
▁Вод	-10.0983
▁199	-10.0986
▁Нефтеюганск	-10.0994
▁198	-10.0996
че	-10.0999
▁Ха	-10.0999
▁Заинск	-10.1002
▁Сосенское	-10.1011
▁Никольское	-10.1017
▁Имени	-10.102
▁Светлая	-10.1031
▁Энергетик	-10.1037
▁Коммунаров	-10.1044
ские	-10.1046
▁Слобода	-10.1048
▁196	-10.107
▁197	-10.1082
тная	-10.1084
▁Ивантеев	-10.1087
▁Минераловодский	-10.1088
АО	-10.1092
▁Шушар	-10.1092
▁201	-10.1117
▁Тимашевский	-10.1138
▁Симферополь	-10.1141
▁Гвардейская	-10.1146
▁Белая	-10.1162
▁Тухачевского	-10.1162
▁Губкин	-10.1172
/10	-10.1199
▁Гулькевич	-10.1228
▁Либкнехта	-10.1229
▁Льва	-10.1246
▁Мар	-10.1247
▁Бугульминский	-10.1254
шино	-10.127
иса	-10.1282
▁Собин	-10.1285
▁Ноябрьск	-10.1305
▁Асбест	-10.1316
▁Заря	-10.1321
ил	-10.1327
▁Ключи	-10.1346
▁Благовещенский	-10.1353
▁Видн	-10.1362
▁Ярославский	-10.1373
▁Артемовский	-10.1383
Социалистическая	-10.1403
▁8-	-10.1404
▁Новом	-10.1412
▁Россошанский	-10.1416
▁Абинский	-10.1426
ис	-10.1428
З	-10.1438
▁Белоярский	-10.1447
▁Мичуринск	-10.1451
▁Смоленский	-10.1464
▁Горно	-10.1465
▁Приморско	-10.1468
▁Киселевск	-10.1469
никова	-10.1472
▁Гаврилов	-10.1474
▁Дмитрия	-10.1503
▁Люксембург	-10.152
▁Пролетарский	-10.1525
нова	-10.1528
нина	-10.1531
▁Бузулук	-10.1532
рова	-10.1539
▁Кочубеевск	-10.1543
▁Сокол	-10.1562
гор	-10.1567
▁Кал	-10.1569
▁Восход	-10.1572
▁Горная	-10.1578
▁209	-10.1586
▁2/1	-10.1587
▁Гора	-10.1593
▁Ильича	-10.1599
▁Кольцевая	-10.1611
▁Блюхера	-10.1615
▁Буденновский	-10.1622
▁Пушкинский	-10.1623
▁Привокзальная	-10.1624
▁Сад	-10.1626
▁207	-10.1626
▁Волховский	-10.1631
▁слобода	-10.1633
▁Вишневая	-10.1637
ник	-10.1646
▁Алексеевка	-10.1649
▁Городок	-10.1664
▁Мо	-10.1669
▁Белокалитвинск	-10.1671
▁Студенческая	-10.1671
▁Богданович	-10.1679
▁Тюменский	-10.1684
▁Чер	-10.169
▁Выборг	-10.1696
▁Слободской	-10.1698
▁Бердск	-10.17
▁Луки	-10.1705
▁Химиков	-10.1709
▁206	-10.171
▁г	-10.1713
▁Розы	-10.1717
еево	-10.172
Ф	-10.1727
▁Краснокамск	-10.1727
▁Буденного	-10.1753
▁Жуковского	-10.1762
▁Борисоглебский	-10.1762
▁Чайков	-10.1766
▁Кузнецова	-10.1769
екинский	-10.1773
▁Оренбургский	-10.1789
ры	-10.1795
▁205	-10.1799
▁Крылова	-10.1805
нино	-10.1808
▁Кр	-10.181
▁Сысертский	-10.182
▁Азнакаев	-10.1823
▁Лог	-10.1836
▁213	-10.1841
▁Ак	-10.1842
▁Кисловодск	-10.186
▁Тахтамукай	-10.1864
аш	-10.1874
енская	-10.1874
▁Ма	-10.1874
▁Первомайское	-10.1877
▁Серов	-10.1883
▁Сав	-10.1913
уз	-10.1937
еш	-10.1943
▁аллея	-10.195
▁Кызыл	-10.1962
▁Михайловск	-10.1965
▁212	-10.197
▁Юности	-10.1978
▁Гудермесский	-10.1997
▁Верх	-10.1999
▁Ра	-10.2001
▁Магадан	-10.2006
лино	-10.2012
▁Урус	-10.2013
▁Переслав	-10.2015
▁Новокуйбышевск	-10.2024
ченко	-10.2029
▁Широкая	-10.2032
▁211	-10.2033
▁Городецкий	-10.2036
шево	-10.2052
▁Хмельницкого	-10.2065
ков	-10.2071
▁Неклиновский	-10.2073
▁210	-10.2076
▁Медведевский	-10.2079
▁Гатчин	-10.209
▁Майская	-10.2093
ковский	-10.2107
▁ул	-10.2119
▁Вер	-10.2122
▁Азовский	-10.2123
▁1/1	-10.2125
ыр	-10.2133
▁Коммуны	-10.2134
▁Новотроицк	-10.2141
▁Арсеньев	-10.2142
▁Белебеевский	-10.2144
▁208	-10.2144
▁Климовск	-10.2144
▁Белореченский	-10.2159
зи	-10.2167
▁Свободный	-10.2171
▁Кул	-10.2176
това	-10.2179
аева	-10.2191
▁железнодорожная	-10.2195
▁Саратовский	-10.2207
▁Глазов	-10.2218
▁Кузнецкий	-10.2221
▁Осипенко	-10.2233
икова	-10.2238
▁Лаишев	-10.2247
▁Новые	-10.2247
▁Людинов	-10.2249
▁Малоярославецк	-10.2258
▁котельная	-10.2259
▁Пензенский	-10.2266
▁214	-10.2272
▁Пол	-10.2273
▁Трактовая	-10.2327
▁Механизаторов	-10.2346
▁Пи	-10.2348
▁Старое	-10.2358
▁Ключевая	-10.2375
▁Су	-10.2381
▁215	-10.2391
ды	-10.2416
▁Садовый	-10.2426
▁Кашир	-10.2434
▁Дивизии	-10.244
ники	-10.2442
▁Елец	-10.2444
▁Богдана	-10.2469
▁Володарский	-10.2472
▁Изобильненск	-10.2482
▁Сам	-10.2491
▁Лабинский	-10.2499
ру	-10.2515
▁Мелеузовский	-10.2519
▁Бориса	-10.2527
▁Сибирская	-10.2532
▁Юрга	-10.2535
▁Чистополь	-10.2546
▁Ан	-10.2555
сово	-10.2557
▁Новосибирский	-10.2583
Чепецк	-10.2586
▁Элиста	-10.259
евский	-10.259
▁неком	-10.2602
▁Ша	-10.2603
▁Ишим	-10.2606
▁Томский	-10.262
▁Гай	-10.2623
▁Индустриальная	-10.2676
ум	-10.2677
▁Аб	-10.2683
▁Ел	-10.2684
▁Выкс	-10.2727
▁Новгородский	-10.2736
лу	-10.2739
уд	-10.2756
▁Волоч	-10.2756
▁Парголов	-10.2769
▁Ишимбайский	-10.2788
▁Велики	-10.2811
уш	-10.2813
▁Минусинск	-10.2813
▁Больничная	-10.2822
▁Ленин	-10.2847
▁Петровск	-10.2853
▁Сургутский	-10.2878
-4	-10.289
▁Вышн	-10.2891
▁Кингисеппский	-10.2894
ица	-10.2895
▁Мор	-10.2918
▁Пугачева	-10.2926
▁Ст	-10.293
▁Учалинск	-10.2946
Мартановский	-10.2954
ень	-10.2956
чика	-10.2972
▁Авиаторов	-10.2989
▁Бугульм	-10.2989
▁Петергоф	-10.2991
▁Невского	-10.3005
езда	-10.3018
▁Авто	-10.3019
▁Новоалександров	-10.3026
▁Сергиево	-10.3028
▁Сальский	-10.3032
▁Курский	-10.3036
▁Усолье	-10.304
гина	-10.3045
▁Коркин	-10.3045
▁Камень	-10.3045
▁Бар	-10.3046
▁Новошахтинск	-10.3047
ичи	-10.306
▁Георгия	-10.3068
▁ТСН	-10.3074
▁Гражданская	-10.3083
▁Александровка	-10.3086
▁Предгорный	-10.3086
▁Канск	-10.3091
▁Омский	-10.3119
▁Ос	-10.3142
▁Радищева	-10.3153
▁Всеволожск	-10.3157
▁Кан	-10.3157
▁Кольчугинский	-10.3162
▁Ейск	-10.3171
Лабинский	-10.3184
▁Березовка	-10.3189
▁219	-10.3189
▁Яковлевский	-10.3192
▁Приозерский	-10.3215
ного	-10.3244
▁216	-10.3268
▁Остров	-10.3278
▁Сол	-10.328
▁Си	-10.3286
▁Вязников	-10.329
иков	-10.3335
▁Ревд	-10.3335
▁Курганинский	-10.3347
▁Салда	-10.3348
Юрт	-10.3356
ковка	-10.3358
▁Печор	-10.3374
▁Волжск	-10.3384
▁Талдом	-10.3393
▁Дятьков	-10.3399
ку	-10.3405
ве	-10.342
▁Каневской	-10.3435
▁Кам	-10.3481
▁Семенов	-10.3495
▁Черн	-10.3525
▁Тихвинский	-10.3525
▁Про	-10.3542
тская	-10.3551
/12	-10.3552
никово	-10.3556
▁Олимпийская	-10.3566
▁218	-10.3571
▁Владимира	-10.3574
▁Михаила	-10.3574
▁Шуйский	-10.3576
▁Больше	-10.3587
▁Сосновка	-10.3589
▁Вельск	-10.3633
еева	-10.3642
▁Александров	-10.3644
▁Баумана	-10.3649
тино	-10.3652
▁Елабужск	-10.3653
10	-10.366
▁Тур	-10.3661
лю	-10.3677
▁Саткинский	-10.3689
мар	-10.3691
▁Бал	-10.3702
▁Красногорский	-10.3714
▁Крымск	-10.373
▁Радужный	-10.3747
▁Рамонский	-10.3751
▁Лев	-10.3752
рда	-10.3754
▁217	-10.3757
▁Николаевский	-10.3759
▁Балахнинский	-10.3769
▁Буд	-10.3773
▁Мал	-10.3776
▁223	-10.3806
си	-10.3819
▁220	-10.3829
тан	-10.3836
▁Мотор	-10.3841
▁Анжер	-10.385
▁Станционная	-10.3852
▁Поляны	-10.3875
при	-10.388
▁Сел	-10.3889
▁пункт	-10.3891
▁Никольский	-10.3893
▁221	-10.3901
▁Ис	-10.3911
ище	-10.3913
анова	-10.392
▁Киевская	-10.3922
▁Славы	-10.3928
Илимск	-10.393
▁Сокольский	-10.3955
▁222	-10.3959
▁Орджоникидзевск	-10.3962
Судженск	-10.3964
▁Чапаевск	-10.3968
▁Шу	-10.3991
▁Биробиджан	-10.4005
▁Алтайская	-10.4038
▁Константиновск	-10.405
▁232	-10.4059
гино	-10.4067
▁Суздальский	-10.407
▁Чебаркуль	-10.4074
▁Би	-10.4079
▁Нахимова	-10.408
▁Просвещения	-10.4083
▁Городище	-10.4092
▁Полевск	-10.4094
дино	-10.4095
▁Ви	-10.4101
▁Бел	-10.4123
▁231	-10.4151
/11	-10.4158
▁Партизан	-10.4164
▁Троицкий	-10.4165
▁225	-10.4166
▁Краснотурьинск	-10.4167
▁Юрия	-10.4169
▁Коллективный	-10.4203
▁224	-10.4206
▁Емельяновский	-10.4227
▁Бабушкина	-10.4228
▁Челюскинцев	-10.4228
ак	-10.4229
▁Юрьев	-10.4235
▁Бутурлинов	-10.4244
новка	-10.4253
▁Белогорск	-10.4259
уч	-10.4266
▁Дубна	-10.4274
▁Алексинский	-10.4291
▁нас	-10.4304
▁Кореновский	-10.4308
ич	-10.4309
остроителей	-10.4312
▁Кантемиров	-10.4325
▁Фурманова	-10.4325
▁Котельнич	-10.4334
Сибирско	-10.4348
▁Брянский	-10.4357
▁Узловский	-10.4358
▁Линейная	-10.4363
▁Туймаз	-10.437
▁233	-10.4387
▁Черкесск	-10.4417
▁Фабричная	-10.4417
▁Кумертау	-10.4425
▁Звенигов	-10.4432
▁Шалинский	-10.4446
▁3/1	-10.4465
▁тупик	-10.4465
▁Бай	-10.4467
▁гаражный	-10.4506
▁Тихорецк	-10.451
▁по	-10.4521
▁Череповецкий	-10.4529
еленный	-10.4534
▁Тутаевский	-10.4537
▁Мало	-10.4538
▁Балашов	-10.4542
▁Район	-10.4546
▁226	-10.455
▁229	-10.4555
▁Павла	-10.4561
▁Советск	-10.4562
Ш	-10.4563
▁Белорецк	-10.4566
▁Антонова	-10.4578
▁Назарово	-10.4584
▁Апшеронский	-10.4588
▁Бу	-10.4589
▁Фестивальная	-10.4596
▁Высокогорский	-10.4599
▁Широ	-10.4605
▁Горяч	-10.4619
▁Ивановка	-10.4619
▁Снежинск	-10.4621
▁Пархоменко	-10.4635
▁Павлово	-10.4648
▁Дом	-10.4648
▁Котовского	-10.465
▁Мариинский	-10.4655
▁Чистопольский	-10.4655
еж	-10.4669
▁Азов	-10.4681
▁Родниковая	-10.4699
▁Космодемьянской	-10.47
▁Касимов	-10.4709
▁Космонавта	-10.4711
▁Белореченск	-10.4714
▁Новокубанский	-10.4717
▁Пруды	-10.4722
овой	-10.4724
▁Россошь	-10.4726
▁228	-10.474
▁Ростовский	-10.4747
аево	-10.4751
▁Алексин	-10.4756
▁Ман	-10.4758
▁Луховицы	-10.4778
▁Гастелло	-10.4785
▁Зои	-10.48
▁230	-10.4815
▁Луч	-10.4824
▁Петрова	-10.484
▁Сосновоборск	-10.486
аново	-10.4861
▁Николаевка	-10.4863
▁Ле	-10.4865
▁Сиреневая	-10.487
▁Новоалтайск	-10.4873
▁Грязинск	-10.4879
▁Учал	-10.4885
▁Олимпийский	-10.4888
▁Березовый	-10.49
▁Массив	-10.4905
гинский	-10.4907
▁238	-10.491
▁Вятск	-10.4918
▁Туапс	-10.492
▁Бокситогорск	-10.492
▁239	-10.4932
▁Краснодарская	-10.4933
▁Ян	-10.4957
▁Шелехов	-10.4958
▁Мостовский	-10.4964
▁Джалиля	-10.4979
▁Поле	-10.4992
ач	-10.5008
лен	-10.5015
▁Ашинский	-10.5019
▁Роща	-10.5034
▁Стан	-10.5051
▁Грибоедова	-10.5054
▁Ирбит	-10.5078
▁50-	-10.5088
енка	-10.5096
▁Пионерский	-10.5098
▁Саров	-10.5103
стр	-10.5107
▁Бессонов	-10.5121
▁Киреевский	-10.5124
▁Волосов	-10.5137
▁Миллеровский	-10.5157
▁240	-10.5163
▁Ипатов	-10.5167
▁Ушаков	-10.5172
▁237	-10.5173
▁Иглин	-10.5176
▁Кош	-10.5187
▁Добрянк	-10.5191
▁Георгиевский	-10.5204
▁Елабу	-10.5211
▁Север	-10.5215
▁Минская	-10.5224
▁241	-10.5239
▁235	-10.5241
▁Тихвин	-10.5243
▁Шатура	-10.5248
жа	-10.5254
▁Те	-10.5272
▁Красносулинский	-10.5279
▁234	-10.528
▁Бер	-10.5284
▁Мусы	-10.5289
▁Борисоглебск	-10.5292
▁Шадринск	-10.5299
▁Мирнинский	-10.5308
▁Октябрьское	-10.5312
▁Внуковск	-10.5316
▁Жирновск	-10.5317
▁Кут	-10.5324
▁Морская	-10.5325
▁Донской	-10.5329
▁Пе	-10.5332
▁Ясная	-10.5335
▁Барыш	-10.5338
▁236	-10.5341
овича	-10.5346
▁Малый	-10.5356
▁Пятилетки	-10.5371
▁Село	-10.5376
▁Ахтубинский	-10.5377
▁Верхние	-10.5384
▁Лиски	-10.5387
▁Усоль	-10.5388
▁227	-10.5389
▁Рассвет	-10.5402
▁Нефтекумск	-10.5416
▁Фадеева	-10.5416
▁Баймак	-10.5421
▁Му	-10.5438
▁Юл	-10.5441
▁Геленджик	-10.5445
▁Чебоксарский	-10.5452
ист	-10.5473
▁Парт	-10.5477
▁Губкина	-10.548
▁зона	-10.5482
▁Гвардейской	-10.5486
▁Хар	-10.5502
▁Рябиновая	-10.5508
Э	-10.551
ника	-10.5533
су	-10.5535
нево	-10.5536
▁Мелеуз	-10.5558
вер	-10.5567
▁Горка	-10.5571
▁Котельник	-10.5576
▁Оле	-10.5578
▁Крестьянская	-10.5585
▁Песчаная	-10.5588
▁Овражная	-10.5592
▁Беляева	-10.5599
▁Новоильин	-10.5608
▁Тал	-10.562
▁Жигулевск	-10.5624
▁Ли	-10.5624
▁Радужная	-10.5627
▁Седова	-10.5627
▁Лысков	-10.563
▁Георгиевск	-10.563
▁б	-10.5632
мо	-10.5635
▁Фу	-10.5648
▁Карасук	-10.5651
▁Бахчисарайский	-10.5658
▁км	-10.5669
▁Тура	-10.5673
▁Малое	-10.5673
▁5/1	-10.5677
▁Гри	-10.568
▁250	-10.5681
▁Иль	-10.5685
▁Кошевого	-10.5692
иева	-10.5699
▁Ер	-10.5702
чева	-10.5713
▁Знаменский	-10.5713
▁Брюховецк	-10.5716
▁Сур	-10.5717
▁Костромской	-10.573
▁Сар	-10.573
▁Троицкое	-10.5738
▁совхоза	-10.5743
анская	-10.5745
▁Кос	-10.5748
нь	-10.5753
льная	-10.5754
▁Пестречинск	-10.5771
из	-10.5772
де	-10.5795
ахтубинский	-10.5798
▁Загор	-10.5817
▁Виноградная	-10.5822
▁Рославльский	-10.5827
▁247	-10.5841
▁Катав	-10.5845
▁Матвеев	-10.585
ата	-10.5851
▁Чусово	-10.5857
▁Славян	-10.5859
▁Кольский	-10.5862
▁Дальняя	-10.5867
овый	-10.5889
▁Верещагин	-10.5889
Петровский	-10.5899
▁Судогодск	-10.5902
▁Кимр	-10.591
▁Серова	-10.591
уб	-10.5915
Ж	-10.5923
▁Венев	-10.5942
▁Лес	-10.5942
▁Великоустюгск	-10.5945
ников	-10.5954
▁Белогорский	-10.5958
▁Прохладн	-10.596
евича	-10.5961
▁Бобровский	-10.5961
▁245	-10.5963
▁Доватор	-10.5973
▁Мончегорск	-10.5976
▁Ишимбай	-10.5977
▁Красноуфимск	-10.5992
▁Малые	-10.6015
▁Ям	-10.6016
ух	-10.6021
▁Березка	-10.603
▁Авиационная	-10.6032
▁Софьи	-10.6032
▁Вологодский	-10.6034
Залес	-10.6038
▁Целин	-10.6039
▁Горный	-10.604
▁Югорск	-10.6042
рино	-10.6043
▁Лосино	-10.6057
ополянский	-10.606
▁Макаренко	-10.606
▁Дубовский	-10.6061
▁Автомобилист	-10.6073
/15	-10.6081
▁Коминтерна	-10.6083
▁Дмитровское	-10.6085
кол	-10.61
▁Нижнеудинск	-10.6108
▁Байкальская	-10.6115
▁Риха	-10.612
Кубани	-10.6122
рем	-10.6124
▁Буденновск	-10.6125
▁Свердловский	-10.6127
шкино	-10.6148
▁Тимашевск	-10.6154
▁Лесосибирск	-10.6162
▁Бакинск	-10.6164
▁Осинник	-10.6168
▁Республик	-10.617
15	-10.6174
Апатиты	-10.6176
▁Павловская	-10.6176
▁Народов	-10.619
ё	-10.6191
▁Ут	-10.6199
▁Вольск	-10.6209
▁Кармаскал	-10.6213
жи	-10.6222
▁Кировск	-10.6229
▁Нижнесер	-10.6236
екино	-10.6242
▁251	-10.6247
▁Усман	-10.6247
▁Ди	-10.6247
▁Гуков	-10.6252
▁Республиканская	-10.6254
▁Торжок	-10.6256
▁Рокоссовского	-10.6259
▁Отрадное	-10.6266
▁Ми	-10.6274
▁Семикаракорск	-10.6279
бор	-10.628
▁Шушенск	-10.6282
▁Звенигород	-10.6285
оч	-10.6287
20	-10.6301
▁Металлург	-10.6304
▁Ефремовский	-10.6306
▁Новокузнецкий	-10.6312
▁Калачинск	-10.6325
▁Валуйский	-10.6328
▁Русская	-10.6329
▁Новатор	-10.6331
▁Железноводск	-10.6346
▁Де	-10.6347
▁Дуб	-10.6347
▁249	-10.6349
▁Бело	-10.6355
▁Достоевского	-10.6363
▁Саянск	-10.6365
▁Вол	-10.6366
▁Огородная	-10.6372
▁Починковск	-10.6381
вская	-10.6388
▁Старорусский	-10.6389
▁Надым	-10.6389
▁Режевск	-10.6404
хи	-10.6411
нское	-10.6424
▁Демьяна	-10.6426
▁242	-10.6426
▁Бедного	-10.6436
▁259	-10.6438
▁Севастопольская	-10.6444
▁4/1	-10.6445
▁243	-10.6448
▁Калачевский	-10.6454
овского	-10.6461
▁Псковский	-10.6462
▁Сельская	-10.6467
▁Тутаев	-10.6473
зар	-10.6482
▁Красно	-10.6482
дор	-10.6485
12	-10.6501
▁Рождественская	-10.6514
яр	-10.6516
▁Вар	-10.6517
▁Университетская	-10.6523
▁Сухоложск	-10.6533
▁246	-10.6536
▁Пере	-10.6537
нер	-10.6558
▁Че	-10.6562
▁Народно	-10.6563
илимский	-10.6563
▁Лыткарин	-10.6566
▁Юн	-10.6576
▁Ульяновский	-10.6593
▁Интернационал	-10.6601
▁Еманжелинск	-10.6602
▁Шамиля	-10.6604
лина	-10.6613
▁Ополчен	-10.6613
▁Кубанская	-10.6618
▁Нерюнгри	-10.6622
▁Капитан	-10.6631
▁Минеральны	-10.6633
▁Захарова	-10.6637
16	-10.6637
▁244	-10.6648
▁Старые	-10.6649
уг	-10.665
▁Репина	-10.6653
▁Алексеева	-10.6655
▁Коммунарка	-10.6657
чиков	-10.666
лес	-10.6667
▁Короленко	-10.6673
▁Сиреневый	-10.6676
▁Ус	-10.6678
▁Золот	-10.6682
▁Пограничная	-10.6682
▁Гражданский	-10.6689
▁Плесецк	-10.6692
▁Староминск	-10.6695
▁Тукая	-10.6696
▁Губкинский	-10.6709
ые	-10.671
▁Кронштадт	-10.6714
▁Читинский	-10.6735
▁Славянск	-10.6766
охма	-10.6769
▁Ильинский	-10.6779
▁Сафоновский	-10.6788
▁Тукаевский	-10.6789
/13	-10.6789
▁Сосногорск	-10.6794
▁Шуя	-10.6801
▁Парковый	-10.6806
▁Пар	-10.6818
▁Фрязино	-10.6836
▁Александровск	-10.6837
мы	-10.6841
чево	-10.6841
▁248	-10.6851
ары	-10.6854
▁Моздокский	-10.686
▁Полтавская	-10.6887
▁Белебей	-10.6894
▁Волхов	-10.6895
▁Союзная	-10.691
▁Сал	-10.6942
ие	-10.6944
▁Плеханова	-10.6944
▁Боровая	-10.6948
▁Кукмор	-10.695
▁Хор	-10.6952
▁Алапаевск	-10.6953
▁Рабочий	-10.6962
▁Маркова	-10.6963
▁Кир	-10.6982
рос	-10.6986
▁Тулун	-10.6987
▁Ше	-10.6988
▁Ярцевский	-10.6996
▁Вавилова	-10.6997
▁Джанкойский	-10.6999
мир	-10.702
чу	-10.7027
▁Анатолия	-10.703
/16	-10.703
▁Пу	-10.7049
▁1/2	-10.7052
▁Светлоярский	-10.7054
▁Покровка	-10.7056
ровка	-10.7058
дер	-10.7063
▁267	-10.7066
▁некоммерческо	-10.7068
▁Сальск	-10.7074
▁Волжская	-10.7082
▁Аргаяш	-10.7093
гар	-10.7095
иуса	-10.7107
▁Кущевский	-10.7108
▁садоводческо	-10.7114
▁Петухов	-10.7121
▁Елизовский	-10.7128
шина	-10.7136
▁Хасавюрт	-10.7137
▁Арзамасский	-10.7139
▁Таежная	-10.714
▁Сибай	-10.714
▁252	-10.7141
▁Варшавское	-10.7143
▁253	-10.7154
▁Спутник	-10.7155
ера	-10.7158
▁Острогожский	-10.7159
▁Прогресс	-10.7165
▁11-	-10.7166
▁Ливны	-10.7168
фа	-10.7169
▁Лесозаводск	-10.7174
▁Коммунар	-10.7181
▁Жердев	-10.7184
▁Гагаринский	-10.7184
▁Автозаводская	-10.7191
▁Мирная	-10.7202
▁Нижние	-10.7212
▁Белый	-10.7215
▁Кыштым	-10.7218
▁Чертковский	-10.7222
▁Цивильск	-10.7225
▁Заринск	-10.723
рская	-10.7231
▁Николаевск	-10.7242
▁Кемеровский	-10.7244
▁Нытвенск	-10.7245
▁Черемушки	-10.7256
▁Нягань	-10.7263
▁Маяк	-10.7264
▁Космическ	-10.7266
▁Нововоронеж	-10.7266
▁Из	-10.7267
▁Восток	-10.7269
кур	-10.7277
Я	-10.7278
▁Калач	-10.7282
▁Братский	-10.7286
нка	-10.7304
▁Морозова	-10.7316
▁Южное	-10.7327
▁Майкопский	-10.733
▁Фокин	-10.7341
▁Крымская	-10.7342
▁Краснознаменск	-10.7352
▁Качканар	-10.7352
▁Выселки	-10.7355
▁Песочная	-10.7359
▁Текстильщиков	-10.7361
▁в	-10.737
дан	-10.7371
▁Кудымкар	-10.7375
▁Средняя	-10.7397
лан	-10.7401
▁Сердобский	-10.7402
▁Павловск	-10.7405
▁Вязьма	-10.7407
▁Октябрь	-10.7416
▁Хохольский	-10.7433
▁Целинная	-10.7439
▁Гар	-10.7445
▁Черемхов	-10.7449
▁Волкова	-10.7458
яково	-10.7465
лин	-10.7472
▁Шарыпово	-10.7472
сти	-10.7475
енная	-10.7483
▁Выселков	-10.7488
реза	-10.7489
▁Алушт	-10.7491
нич	-10.7492
▁260	-10.7497
▁Таштагольский	-10.7504
▁Турист	-10.7506
▁Сакский	-10.7508
▁Чишминск	-10.7513
▁Дол	-10.7515
пол	-10.7515
▁Семен	-10.7517
▁Целинный	-10.7522
▁Каслинский	-10.7534
▁Данилов	-10.7544
▁Хасавюртовск	-10.755
▁Южноуральск	-10.7556
иково	-10.7562
▁Канаш	-10.7568
▁254	-10.7579
▁Юго	-10.758
▁Тихая	-10.7583
▁Невельский	-10.7583
▁Иван	-10.7587
пр	-10.7588
▁Дюртюлинский	-10.759
▁Кольчугин	-10.76
▁Агрыз	-10.7602
▁Раздольная	-10.7606
▁Можайское	-10.7612
▁дивизии	-10.7622
▁Сель	-10.7631
ушкина	-10.7639
▁Пан	-10.764
ван	-10.7651
▁Лабинск	-10.7653
▁257	-10.7654
/14	-10.7655
▁Соль	-10.7657
▁Отрадный	-10.7659
▁Николаева	-10.7668
▁Парижск	-10.7678
17	-10.7679
▁271	-10.7679
▁Загородная	-10.7682
▁258	-10.7682
▁Полярная	-10.7682
енкова	-10.7683
▁Балахн	-10.7688
▁Камызяк	-10.7698
иш	-10.7709
▁Бабаев	-10.7716
▁Воскресенское	-10.7729
▁Калачеевский	-10.7735
▁263	-10.7739
ербакова	-10.7744
00	-10.7747
енки	-10.7774
▁261	-10.7775
▁Енисейская	-10.7778
▁Большевиков	-10.7783
▁Завод	-10.7792
▁Исилькуль	-10.7805
19	-10.7809
▁Рыбно	-10.7812
▁Пер	-10.7818
▁Лесное	-10.7831
▁Макарова	-10.7835
▁Подпорож	-10.7835
▁Отрадненск	-10.7835
▁Куйбышев	-10.7838
▁Спасск	-10.7838
▁Октябрьской	-10.7844
▁Сестрорецк	-10.7846
▁Правды	-10.7846
▁Бе	-10.7847
▁Железнодорожник	-10.785
▁Некрасовский	-10.7865
▁Кореновск	-10.7873
▁Кулебаки	-10.7886
ецкая	-10.789
▁Гудермес	-10.7892
▁256	-10.7894
▁Чичерин	-10.79
▁Узловая	-10.7903
рная	-10.7903
▁Красного	-10.7903
▁255	-10.7907
▁Коченев	-10.7913
▁Дачный	-10.7918
▁Крив	-10.7918
▁Культуры	-10.7923
▁об	-10.7925
▁Новозыбков	-10.7934
▁Панфилов	-10.7942
▁Дербентский	-10.7946
маш	-10.7956
▁Янаульск	-10.7957
▁266	-10.7958
▁Ботаническая	-10.7971
▁Ре	-10.7976
илово	-10.7979
▁Зерноградский	-10.7983
▁Сухой	-10.7987
Алтайск	-10.7991
лык	-10.8
▁Лермонтов	-10.8004
▁Каширское	-10.8005
тинская	-10.8013
▁Ко	-10.8015
▁Воскресенский	-10.8016
чан	-10.8016
▁269	-10.8019
▁Стар	-10.8036
тина	-10.8036
Польский	-10.804
▁Сан	-10.805
▁Североморск	-10.805
▁Шиловский	-10.8061
▁Липецкий	-10.8063
як	-10.8065
▁Крут	-10.8074
▁Бирский	-10.8077
▁Василия	-10.8077
▁Юр	-10.808
арова	-10.8088
▁Родники	-10.8091
▁От	-10.8097
строй	-10.8106
▁7/1	-10.811
▁Холм	-10.8111
▁Ржев	-10.8112
▁Похвистнев	-10.8119
▁Гурьевск	-10.8123
▁Малышева	-10.8125
ез	-10.8127
вы	-10.8144
▁270	-10.8144
▁6/1	-10.8171
▁262	-10.8181
Садовая	-10.8187
Полянский	-10.8197
▁Ярцево	-10.8198
▁Братская	-10.8198
▁Верхнеуральск	-10.8209
▁Кетовский	-10.821
▁Се	-10.8212
▁Ком	-10.8217
рина	-10.8221
езд	-10.8228
▁Мостовая	-10.8238
▁Квартал	-10.8241
кан	-10.8246
▁Даниловский	-10.8248
▁Офицерская	-10.8253
▁Нурлатский	-10.8258
▁Нахабин	-10.8273
▁10-	-10.8274
▁Горки	-10.8279
▁Металлистов	-10.8281
▁дорога	-10.8283
▁Тор	-10.8301
▁Заречье	-10.8308
куль	-10.831
▁Депутатск	-10.8311
▁Каз	-10.8313
▁265	-10.8314
▁Анн	-10.832
▁Новоаннинский	-10.8322
▁Стахановская	-10.8323
▁Тан	-10.8323
▁Нива	-10.8331
▁Корабле	-10.8333
13	-10.8335
▁Пашков	-10.8339
▁Татарский	-10.8341
Ахтарский	-10.8342
▁Ладожская	-10.8354
▁Пригородная	-10.8354
▁Войков	-10.8365
риха	-10.8375
▁Аксай	-10.8376
▁Кушв	-10.838
▁Партизанск	-10.8385
▁Степной	-10.8393
11	-10.8394
▁Кирпичная	-10.8396
▁Федоровский	-10.84
▁Краснооктябрьск	-10.84
ста	-10.84
▁Сорочинск	-10.8401
▁Зубово	-10.8412
▁Мир	-10.8415
сова	-10.8417
30	-10.8421
▁Кабанский	-10.8424
▁Няндом	-10.8436
озер	-10.8439
▁Красина	-10.844
▁Бульвар	-10.8441
▁Воркут	-10.8457
▁Уфалей	-10.8461
▁Поселок	-10.8468
▁генерал	-10.8471
▁Кандалакшский	-10.8473
▁Кавказская	-10.8474
▁Сафоново	-10.8475
▁Мелиораторов	-10.848
единения	-10.8482
▁Лазурная	-10.8486
▁Рыбновский	-10.8486
уха	-10.8491
▁Суворовский	-10.8492
▁Калитв	-10.8493
▁р	-10.8496
▁272	-10.8499
▁Богородск	-10.8504
кин	-10.8506
▁Ленский	-10.851
▁Лебедева	-10.8514
▁Добролюбова	-10.8515
▁Ядрин	-10.8533
▁Леонова	-10.8536
▁Краснослободск	-10.8537
▁Быстр	-10.8557
▁Ардатовский	-10.8561
▁Яблонов	-10.8564
▁Тер	-10.857
▁Гали	-10.8576
евского	-10.8579
▁Успенский	-10.8584
ича	-10.8585
▁Гр	-10.8588
хово	-10.859
▁Реж	-10.8594
▁ГМ	-10.8597
▁275	-10.8602
али	-10.8604
▁Казанская	-10.8618
▁Ташкентская	-10.8627
Фоминский	-10.8634
▁264	-10.8646
инск	-10.8655
▁Старооскольск	-10.8656
▁Кингисепп	-10.8659
омовский	-10.866
Кут	-10.8672
▁Кашин	-10.8678
▁Люб	-10.8685
дина	-10.8686
▁Ни	-10.8696
▁ГО	-10.8697
▁Нижнел	-10.8701
▁Шахтеров	-10.8701
▁Бул	-10.8703
▁помещ	-10.8708
▁Чаплыгин	-10.8715
▁Краснофлотская	-10.8724
▁Гусев	-10.8731
▁Кстово	-10.8732
▁Моршанск	-10.874
▁Боров	-10.8745
▁Грибановский	-10.8753
▁Черняховск	-10.8758
▁Голуб	-10.8761
▁Бат	-10.8783
завод	-10.8786
▁280	-10.8797
▁268	-10.8799
▁Шарьин	-10.88
▁Красноперекопск	-10.8804
▁Осташков	-10.8804
▁Фер	-10.8805
▁Театральная	-10.8807
▁Сегеж	-10.8815
▁Чукотский	-10.8822
чино	-10.883
▁Конев	-10.8832
▁Тейковский	-10.884
ьково	-10.8847
▁Рыб	-10.885
янка	-10.8856
▁Мин	-10.8859
▁Буйский	-10.8859
▁Партизанский	-10.8866
▁Зе	-10.8876
▁Индустриальный	-10.8885
▁Бобров	-10.8886
▁Навашин	-10.8889
▁Краснокаменский	-10.8892
▁Ир	-10.8909
хан	-10.891
/17	-10.8911
▁Академическая	-10.8912
▁Кост	-10.8913
▁Велик	-10.892
▁Толбухина	-10.8923
▁Валдайский	-10.8925
▁Быков	-10.8929
▁Ломов	-10.893
новская	-10.8933
▁Елизаветин	-10.8934
баш	-10.8936
▁Дубн	-10.8942
▁Ру	-10.8945
Хем	-10.8946
▁Мол	-10.8951
▁Германа	-10.8957
▁Шмидта	-10.8964
▁Зелен	-10.8968
▁Дальнегорск	-10.8972
▁Иванова	-10.8972
▁Пал	-10.8975
▁10/1	-10.8976
▁Чернян	-10.8989
▁Дальне	-10.899
▁Новос	-10.8991
ики	-10.8992
▁Вурнар	-10.901
истов	-10.9012
▁273	-10.9014
▁Тара	-10.9016
▁Феодосия	-10.9017
▁Кимовский	-10.9028
Гагарина	-10.9036
▁Ряб	-10.9037
▁Краснознаменная	-10.9044
▁Тарасовский	-10.905
▁Шумерл	-10.9051
▁Покровское	-10.9052
хоз	-10.9052
▁Новохоперск	-10.9052
касы	-10.9059
▁Союза	-10.9065
Судостроительная	-10.9067
▁Фи	-10.9067
▁Зеленоградский	-10.9074
Ка	-10.9077
Чернушинский	-10.9078
▁Тогучинский	-10.9079
▁Красноармейск	-10.9082
▁Надежда	-10.9086
родромная	-10.9086
▁Искитим	-10.9087
▁Комендант	-10.909
▁283	-10.9092
▁Шебекин	-10.9095
14	-10.9097
▁Поронайск	-10.9101
▁Ульянова	-10.9101
▁Бут	-10.9103
бер	-10.9106
▁Ангарская	-10.9111
кий	-10.9123
▁подвал	-10.9124
▁Институтская	-10.9135
▁Надеждинский	-10.9138
▁Сланцев	-10.9139
▁Инженерная	-10.9147
▁Озеро	-10.9154
▁Богородицкий	-10.9166
▁Нижнегорский	-10.9166
тинский	-10.9166
зы	-10.9174
▁Рославль	-10.9176
▁Северное	-10.918
▁Шацк	-10.9182
▁Туполева	-10.9189
▁Североуральск	-10.9193
▁Алексея	-10.9197
▁Шо	-10.9199
▁Краснокаменск	-10.9206
▁Техническ	-10.9216
▁Топкинский	-10.9217
▁Аннинский	-10.922
Илимский	-10.9221
довского	-10.9222
▁Вознесен	-10.9226
▁Син	-10.9226
▁Украинская	-10.9236
▁11/1	-10.9239
Донецкий	-10.924
йская	-10.9247
▁Кот	-10.9255
▁Яна	-10.9261
▁Токарев	-10.9262
▁Крутые	-10.9263
▁Уяр	-10.9264
Овсеенко	-10.9267
дт	-10.9273
▁Сибиряков	-10.9275
вод	-10.9278
▁Ершов	-10.9289
▁Малиновского	-10.9314
▁277	-10.9315
▁Халтурина	-10.9323
▁Красные	-10.9326
▁Бийский	-10.9328
▁278	-10.9337
▁Пулковск	-10.9337
▁8/1	-10.9338
▁Черепанов	-10.934
▁Дунай	-10.9341
▁Инта	-10.9353
▁Приморская	-10.9353
уп	-10.9354
▁Май	-10.9354
ена	-10.9363
▁Вен	-10.9365
▁Никитина	-10.9366
▁276	-10.9368
▁12/1	-10.9372
зино	-10.9374
мыш	-10.9386
80	-10.9389
кая	-10.9393
▁281	-10.9393
/19	-10.9403
▁Зи	-10.9419
▁Талицкий	-10.9423
▁Шекснинский	-10.9428
▁Зарайск	-10.9431
▁9/1	-10.9437
Толстого	-10.9445
▁Когалым	-10.9447
▁Ефремов	-10.9447
▁Белозерский	-10.9453
▁Ти	-10.9459
▁Лежнев	-10.9463
▁Миллеров	-10.9466
Черкасский	-10.9479
▁Лямбир	-10.9479
▁Грязовецк	-10.9481
▁Кулаков	-10.9481
ищи	-10.9482
▁Лукоянов	-10.9483
лево	-10.9486
▁Гидро	-10.9487
▁Тим	-10.9491
▁Исаков	-10.9493
дон	-10.9496
▁Курагинский	-10.9505
▁Раз	-10.9506
▁Борисовка	-10.951
джи	-10.9514
/18	-10.9514
▁Виктор	-10.9516
нги	-10.9516
аково	-10.9518
▁Бологов	-10.9519
Ях	-10.9526
▁Вахитов	-10.9527
▁Агапов	-10.9535
▁Белорусск	-10.9539
▁Козельск	-10.9539
▁279	-10.9545
▁Коп	-10.9546
▁Салехард	-10.955
▁Гол	-10.9552
▁Ершовский	-10.9552
▁Кож	-10.9554
▁Отрадная	-10.9556
18	-10.9557
▁Слюдянский	-10.9558
▁Карталинский	-10.9561
▁Верхнеус	-10.9569
▁Ртищев	-10.9571
▁Осинский	-10.9573
▁288	-10.9579
▁Еременк	-10.9583
поль	-10.9592
▁Саракташ	-10.9599
▁Восточно	-10.9599
▁286	-10.9604
Губаха	-10.9607
▁Камен	-10.9607
▁Газовиков	-10.9607
▁Новок	-10.9612
▁Тепличн	-10.9615
▁Тар	-10.9615
▁Новооскольск	-10.9627
▁Военный	-10.9639
▁Электро	-10.9639
сп	-10.965
шева	-10.9651
дово	-10.9655
▁Пл	-10.9657
▁Красной	-10.9658
▁Донецк	-10.9662
юш	-10.967
▁Ванин	-10.9674
▁2/2	-10.9682
▁Удом	-10.9692
▁Ильинское	-10.9694
▁Новониколаев	-10.9704
▁Азина	-10.9705
▁Тавд	-10.9707
лонский	-10.9707
▁Сергиевский	-10.9713
▁Таловский	-10.9713
▁Спас	-10.9722
▁274	-10.973
▁Донская	-10.9734
▁Фролово	-10.9736
▁Без	-10.9741
▁Мамадышский	-10.9752
▁Нестеров	-10.9761
▁Задонский	-10.9769
род	-10.9771
▁Веселая	-10.9781
▁Ахтубинск	-10.9788
Ивановский	-10.9792
▁Нар	-10.9793
▁Флотская	-10.9794
▁Королёв	-10.9797
▁Троицкая	-10.9802
дин	-10.9805
ще	-10.9817
▁Карпинского	-10.9819
▁Клары	-10.9822
▁Бр	-10.9826
▁Каширин	-10.9828
▁Подлесная	-10.9838
▁285	-10.984
▁Зори	-10.9841
▁Можга	-10.9843
▁Куртамыш	-10.9843
▁Краснодон	-10.9843
▁Чайкиной	-10.9844
якова	-10.9847
▁Черно	-10.9856
щина	-10.9856
▁Беловский	-10.9857
▁282	-10.9871
▁Пуровск	-10.9884
зова	-10.9885
▁Холмский	-10.9893
▁Гаражная	-10.9902
▁Мер	-10.9906
▁Далматов	-10.9909
▁Кленовая	-10.991
▁Урал	-10.9911
▁Коч	-10.9913
▁Фурмановский	-10.9913
чная	-10.9914
▁Колос	-10.9915
▁Абинск	-10.9918
▁Верхнее	-10.992
▁Ветеран	-10.9926
ент	-10.9928
▁Заозерная	-10.9933
▁Цеткин	-10.9936
▁Рас	-10.9938
▁300	-10.9939
▁Шебекинский	-10.994
▁Усманский	-10.9946
▁284	-10.995
▁Вязник	-10.9951
▁Тернов	-10.9953
ловка	-10.9956
▁Ах	-10.9957
▁Харьковская	-10.9964
▁Грязи	-10.997
Хмельницкого	-10.9976
▁ЖК	-10.9979
апеш	-10.9982
жная	-10.9984
▁Суздаль	-10.999
▁Гончаров	-11
▁Вернад	-11.0009
▁Порхов	-11.0009
▁Коз	-11.0011
▁Саяногорск	-11.0013
стан	-11.0013
▁Шал	-11.0013
▁Кутузов	-11.0015
▁Борисовский	-11.002
▁Сер	-11.0029
▁Сергеев	-11.0031
▁Луз	-11.0031
/20	-11.0038
▁Одесская	-11.0041
▁Волоконов	-11.0042
▁Фёдор	-11.0049
90	-11.0053
▁Горнозаводск	-11.006
реченск	-11.006
Ч	-11.006
▁Аскиз	-11.0063
▁Засечн	-11.0063
ход	-11.0064
▁Голов	-11.0074
▁Ск	-11.0074
▁ГЭК	-11.0076
▁Заокский	-11.0076
юк	-11.0079
▁Никольск	-11.0083
▁Кат	-11.0085
иново	-11.0086
▁Калтан	-11.0089
▁Лоб	-11.0091
▁Луга	-11.0097
▁Тру	-11.0099
▁13/1	-11.0102
▁Васильева	-11.0103
Ленина	-11.0111
лей	-11.0125
▁Алтуфьев	-11.0135
▁Ду	-11.0141
▁Суровикин	-11.0143
▁Архангельское	-11.0155
▁Казачья	-11.0156
уль	-11.016
газет	-11.0161
▁Меленковский	-11.0169
▁Почепский	-11.0173
▁Касимовский	-11.0174
▁Аргун	-11.0178
нга	-11.018
▁Карабудахкент	-11.0182
▁Базарная	-11.0182
▁Главная	-11.019
▁Назрановский	-11.0191
цкого	-11.0204
▁Придорожная	-11.0207
▁Бажова	-11.0207
уга	-11.0211
▁Малахов	-11.0211
▁Ульянов	-11.0212
ецкий	-11.0212
Забайкальский	-11.0214
▁Печенг	-11.0216
▁Николо	-11.0216
овых	-11.0221
▁Корочанск	-11.0224
▁Палласов	-11.0246
▁Стара	-11.0251
по	-11.0252
▁Доброволь	-11.0257
▁Геологов	-11.026
▁Амурск	-11.026
▁Твар	-11.0263
▁Нов	-11.0264
▁Малиновка	-11.0269
▁Конституции	-11.0276
▁Эртиль	-11.0276
рма	-11.0276
▁Урванский	-11.028
▁291	-11.0285
▁Чунский	-11.0288
▁Комиссаров	-11.0292
▁Андреевка	-11.0293
▁Бежецкий	-11.0293
чный	-11.0295
инского	-11.0307
Ачхой	-11.031
▁Монтажник	-11.031
сена	-11.0316
▁Лебедянский	-11.0321
▁Аша	-11.0322
▁Смирнова	-11.0328
▁Омутнинский	-11.0332
▁Мегион	-11.0336
▁Сухинич	-11.0336
▁289	-11.0338
Ду	-11.0338
▁Нижнее	-11.0341
▁участок	-11.0342
▁Арский	-11.0347
▁Шум	-11.0351
▁Буй	-11.0355
▁Обручев	-11.0358
▁303	-11.0362
▁Унечский	-11.0365
юр	-11.0373
▁Рад	-11.0377
▁Долго	-11.0379
▁Базарно	-11.0379
▁Кушнаренков	-11.0384
▁Новопокровский	-11.0388
таж	-11.0388
40	-11.0393
▁Благодарненск	-11.0396
▁307	-11.0398
▁302	-11.0399
▁304	-11.0408
рева	-11.0409
▁Абзелилов	-11.0419
▁Планерн	-11.0419
кинская	-11.042
рь	-11.0426
Производственная	-11.0429
▁Назран	-11.0431
▁Кузоватов	-11.0432
▁Кимрский	-11.0435
▁Стрежевой	-11.0436
▁Сююмбик	-11.0436
▁Сходн	-11.0436
▁Кадуй	-11.0441
емский	-11.0445
▁Курганинск	-11.0445
▁Курчалоевск	-11.0453
▁Безенчукский	-11.0456
▁Чертановск	-11.0462
▁Алданский	-11.0463
▁Фед	-11.0465
▁ДНП	-11.0467
▁Котовский	-11.0467
▁Гу	-11.0471
▁Шар	-11.0476
▁Хабаровская	-11.0478
▁Семилук	-11.0485
▁Тбилисский	-11.0486
▁Конош	-11.0493
▁Шаховск	-11.0496
▁Дивногорск	-11.0519
кон	-11.0531
▁Рассказово	-11.0532
▁Мантуровский	-11.0533
▁Русс	-11.0539
▁Вичугский	-11.0539
▁Покров	-11.054
▁Приозерная	-11.0541
▁Заиграев	-11.0541
▁гаражей	-11.0541
пово	-11.0547
▁Ордынский	-11.0548
▁Садоводческое	-11.055
▁Ясный	-11.0553
▁Кораблин	-11.0555
▁Светлогорск	-11.0566
▁Дон	-11.0568
▁Моздок	-11.0569
▁Малоярославец	-11.0575
▁Панфилова	-11.0584
▁Чкаловский	-11.0584
▁Горняк	-11.0591
еля	-11.0594
▁Беговая	-11.0599
▁Усинск	-11.0603
▁Чамзин	-11.0603
▁Мясниковский	-11.0605
▁Урожай	-11.061
▁287	-11.0612
60	-11.0615
▁Средний	-11.0617
▁Джа	-11.0617
▁Давлекановский	-11.0622
▁Вячеслав	-11.063
▁Барабинский	-11.063
▁301	-11.0633
▁Емельянов	-11.0636
-8	-11.0636
яз	-11.0647
▁Мечта	-11.0648
▁Цвет	-11.0652
▁Моршанский	-11.0657
▁Тынд	-11.066
▁Иволгинский	-11.0662
▁Горы	-11.0666
▁Сатк	-11.0685
ьево	-11.0689
▁Погар	-11.0689
стская	-11.0693
▁Апрелев	-11.0701
▁Иланский	-11.0711
▁Уржум	-11.0711
▁Архитектор	-11.0716
▁Мариинск	-11.0717
▁Богатырский	-11.0717
▁Рощин	-11.0717
▁Острогожск	-11.0718
▁Ясногорский	-11.0723
▁295	-11.0724
▁Бирюзова	-11.0742
▁Ры	-11.0746
▁Сулейман	-11.0748
▁Тю	-11.075
▁15/1	-11.0751
▁Радуга	-11.0751
▁Татищев	-11.0752
▁Сармановский	-11.0753
нец	-11.0755
льский	-11.0761
▁298	-11.0761
▁293	-11.0763
▁4/2	-11.0764
▁Калязинский	-11.0766
▁Нелидов	-11.0769
мер	-11.077
▁Мишкин	-11.0778
▁Шахун	-11.0785
▁Мичуринская	-11.0786
гер	-11.0787
новский	-11.0788
▁Искра	-11.0792
▁Кузнечная	-11.0794
ели	-11.0822
▁Путилков	-11.0823
▁Клепиков	-11.0828
▁Садовое	-11.083
▁Бирю	-11.0831
юн	-11.0842
еть	-11.0842
▁Буинский	-11.0843
▁Мельничная	-11.0844
▁Заволж	-11.0844
▁Красноуральск	-11.0846
▁Сертолово	-11.0846
▁Кандалакш	-11.0849
▁Восстания	-11.0851
▁Рылеев	-11.0852
ара	-11.0853
гун	-11.0854
вка	-11.0858
▁Увельский	-11.0864
▁310	-11.0871
▁Бугуруслан	-11.0872
▁Взлетн	-11.0878
▁Инзенск	-11.0878
▁Кировград	-11.088
▁Уз	-11.0888
/22	-11.0888
▁Озерный	-11.0888
▁Ковылкин	-11.0892
▁Богданов	-11.0895
28	-11.0895
▁Слав	-11.0896
▁Кизлярский	-11.0897
Александровское	-11.0901
▁Бухаре	-11.091
▁Полысаев	-11.091
мана	-11.091
▁Бугры	-11.091
▁Стр	-11.0921
▁Ломоносов	-11.0924
чка	-11.0925
▁Увинский	-11.0928
кор	-11.0931
▁Ленинградское	-11.0933
▁Усманов	-11.0942
ьская	-11.095
ицкая	-11.0953
▁года	-11.0974
▁Константина	-11.0979
▁Гагарин	-11.098
▁отделение	-11.0985
▁308	-11.0987
50	-11.0999
ань	-11.1008
▁Гиагинск	-11.1011
▁Пронский	-11.1012
▁Максимов	-11.1012
▁Вишнев	-11.1016
▁Петровское	-11.1016
▁Роз	-11.1023
авский	-11.1025
▁Воткинский	-11.1026
▁Руднянск	-11.1026
70	-11.1036
ятино	-11.1036
Оби	-11.1039
▁Город	-11.1043
▁290	-11.1052
▁Нур	-11.1052
▁Заполярный	-11.1053
инова	-11.1053
▁Селезнев	-11.1054
▁Морозовский	-11.1058
▁Зем	-11.1065
▁Введен	-11.1076
▁Корсаковский	-11.1076
чев	-11.1079
мал	-11.1079
▁Родниковский	-11.1082
Молодогвардейцев	-11.1082
▁Канашский	-11.1085
илова	-11.1089
Мар	-11.1091
▁Стаче	-11.11
тал	-11.1104
▁Тополиная	-11.1104
▁Невель	-11.1113
▁Купин	-11.1117
▁Дор	-11.112
▁Заводоуковск	-11.1128
евское	-11.1133
▁Мценск	-11.1137
▁Урай	-11.1138
▁Фурманов	-11.114
▁Юлаев	-11.1141
▁Камешковский	-11.1147
▁Большевистская	-11.1151
▁Лодейнопольский	-11.1151
▁Крайняя	-11.1151
▁Перевал	-11.1152
▁Красновишерск	-11.1156
▁Ав	-11.1161
▁322	-11.1162
ниха	-11.1164
▁Поля	-11.1168
▁Грачевский	-11.1174
▁Шолоховский	-11.1175
▁Кавалеров	-11.1175
массив	-11.1178
▁Фрид	-11.1179
▁Рождествен	-11.118
▁Громова	-11.118
▁Лу	-11.1192
▁Артиллерийск	-11.1193
▁Киевский	-11.1199
▁Корсаков	-11.1203
▁Авиаконструктор	-11.1203
▁Каргополь	-11.1208
▁Данковский	-11.121
город	-11.1215
▁Черноморский	-11.1215
▁Белинский	-11.1219
▁Озеры	-11.1222
▁Бакал	-11.1224
▁Икрянинск	-11.1228
оново	-11.1231
▁Кра	-11.1243
▁Абдулин	-11.1247
хина	-11.1247
▁Новоп	-11.1255
▁Деревня	-11.126
▁Мыск	-11.1263
▁Евпатори	-11.1264
▁Петровская	-11.1265
▁Химик	-11.1268
▁Каневск	-11.1274
▁Мел	-11.1275
▁Альшеевский	-11.1279
▁Надежды	-11.1279
▁Курчатов	-11.1279
▁Степное	-11.1279
-5,	-11.1289
▁Темрюк	-11.1293
▁Островский	-11.1296
▁Каякент	-11.1298
Дальний	-11.1302
▁Чудов	-11.1305
▁Подгоренский	-11.1307
▁ДОС	-11.1312
▁Дубрава	-11.1312
▁Зав	-11.1314
▁Лизы	-11.1315
▁292	-11.1323
▁Тарский	-11.1325
▁305	-11.1326
▁Дубровка	-11.1328
▁Менжинского	-11.1331
▁Окуловский	-11.1334
шково	-11.1338
▁Глушков	-11.1338
▁311	-11.1343
▁Высокая	-11.1345
55	-11.1349
▁Краснинский	-11.135
йкино	-11.1354
▁Котово	-11.1354
тай	-11.1355
▁15-	-11.1358
▁Карымск	-11.136
▁Кер	-11.1361
▁Гвардейский	-11.1366
▁Сим	-11.1371
▁Баранов	-11.1372
ёр	-11.1376
▁Поселковая	-11.1379
очная	-11.1381
▁324	-11.1382
▁Бог	-11.1389
▁Ленинцев	-11.139
▁Уль	-11.1401
▁Искитимский	-11.1406
баево	-11.1406
▁314	-11.1407
▁Шолохова	-11.1408
▁Игринск	-11.1417
▁Аркадак	-11.1417
▁Пионер	-11.1421
▁Наримановский	-11.1424
▁Родник	-11.1426
▁поле	-11.1433
овец	-11.1434
▁Труд	-11.1434
▁Наук	-11.1435
▁Варшавская	-11.1437
▁Краснокамский	-11.1443
виль	-11.1444
▁Белов	-11.1447
▁Бестужев	-11.1448
▁315	-11.1449
▁Мат	-11.1456
ёв	-11.1457
▁Петр	-11.146
▁Учительская	-11.1471
цова	-11.1475
ицкого	-11.1478
▁Грозненский	-11.1479
▁Артема	-11.1484
▁Тальменский	-11.1493
ницы	-11.1497
▁Пугачев	-11.1501
▁поляна	-11.1512
▁Стрелков	-11.1515
▁Баб	-11.1519
▁297	-11.1523
▁Шоссе	-11.1529
▁Карсун	-11.153
мова	-11.1531
▁Сулин	-11.1536
▁Древлян	-11.1543
▁Танкистов	-11.1549
Сталь	-11.155
Лабинск	-11.1552
▁Сто	-11.1552
▁Левашинск	-11.1553
06	-11.1555
▁Перевоз	-11.1558
▁Актаныш	-11.1558
▁Речной	-11.1558
▁318	-11.156
▁18/1	-11.1566
▁Сузун	-11.1568
▁Волов	-11.1576
еевка	-11.1578
▁Терский	-11.158
▁Балтийская	-11.1581
▁Лазарева	-11.1586
▁Полет	-11.159
▁Молодогвардей	-11.1591
▁Бирск	-11.1591
▁Дальнереченск	-11.1593
шур	-11.1601
▁Ильинка	-11.1603
щиков	-11.1605
▁Алагир	-11.1607
▁Кис	-11.1609
▁Зеленчукский	-11.1613
кт	-11.1613
▁Левобережн	-11.1615
▁309	-11.1616
ады	-11.1617
▁Балка	-11.1622
▁Ягодная	-11.1622
▁Советов	-11.1626
▁Говорова	-11.1632
▁Луговой	-11.1633
Ку	-11.1633
▁Каштановая	-11.1635
лек	-11.1637
▁Тетюш	-11.1641
▁Белы	-11.1643
мино	-11.1649
▁Урожайная	-11.1649
▁Устьян	-11.1651
Шарья	-11.1652
▁Вой	-11.1652
▁306	-11.1653
▁Любинский	-11.1658
▁Покровская	-11.1659
константинов	-11.1661
яна	-11.1665
▁Питкярант	-11.1666
▁Углов	-11.1675
▁Гороховецк	-11.1676
▁Двор	-11.1676
▁Сн	-11.1679
▁Воинов	-11.1683
▁Шахтерская	-11.1684
▁Буйнакск	-11.1688
▁Нерехтский	-11.169
ханова	-11.1695
ные	-11.1695
▁Мечникова	-11.1696
бол	-11.1702
▁Совет	-11.1704
▁станции	-11.1706
▁14/1	-11.1709
▁Сергачский	-11.1714
▁Добр	-11.172
▁Балабаново	-11.1726
ропорт	-11.1726
▁Чердаклинск	-11.1731
▁Свободная	-11.1732
▁Кировоградск	-11.1736
▁Бородино	-11.1737
▁316	-11.1743
▁Мас	-11.1745
▁Семашко	-11.1745
▁Чур	-11.1751
24	-11.1753
▁Оленегорск	-11.177
▁Конаково	-11.1771
аевка	-11.1773
▁Третья	-11.178
▁Сердобск	-11.1784
▁3/2	-11.1787
▁313	-11.1791
▁Кинельский	-11.1791
лёво	-11.1794
▁Пост	-11.1799
▁Чернигов	-11.18
▁Волочаевск	-11.1803
▁Краснозерск	-11.1807
▁Промышленновск	-11.1808
▁Миронов	-11.1808
▁Елизов	-11.1814
▁Маркс	-11.1814
▁Бей	-11.1819
▁Габдулл	-11.1825
ора	-11.1829
▁Гаражно	-11.1837
▁Асиновский	-11.1851
▁296	-11.1852
▁Баксан	-11.1854
▁60-	-11.1855
▁Камышинский	-11.1858
▁Речка	-11.1864
▁Молодёжная	-11.1869
▁Стаханов	-11.187
/23	-11.1871
кеево	-11.1872
зово	-11.1877
▁Краснояр	-11.1877
▁Перовской	-11.188
▁Мыс	-11.1884
▁роща	-11.1891
▁Карпинск	-11.1895
▁Веры	-11.1906
▁Магдагачи	-11.1911
▁Холмск	-11.1911
▁Батырев	-11.1912
▁312	-11.1915
▁Песчанокопск	-11.1916
▁Рыльский	-11.1916
▁Большемур	-11.1916
▁Авангардн	-11.192
▁Куд	-11.1922
Чепецкий	-11.1925
▁Спартак	-11.1925
▁Камбар	-11.1926
рак	-11.1931
▁Пятницкое	-11.1931
▁Коряж	-11.1931
▁Сух	-11.1936
▁Иш	-11.1936
▁Садовод	-11.1942
уж	-11.1945
ных	-11.1946
▁Шувалов	-11.1947
▁Лип	-11.1955
гул	-11.1966
▁Больничный	-11.1967
▁потребительск	-11.1972
▁317	-11.1976
▁Жуков	-11.1977
▁Кули	-11.1977
▁339	-11.1978
▁Сахарова	-11.1981
▁Красносельский	-11.1982
▁Глинки	-11.1989
ккер	-11.199
лёвская	-11.199
▁Мари	-11.1997
▁Малгобек	-11.2003
▁Кондопожск	-11.2005
▁17/1	-11.2011
▁комплекс	-11.2012
▁21/1	-11.2013
▁Ас	-11.2021
▁Железняк	-11.2028
▁Зорь	-11.2028
▁Славгород	-11.2028
▁Новодвинск	-11.2033
▁Сковородин	-11.2033
▁Рогов	-11.2036
▁Изобильный	-11.2036
чное	-11.2038
▁Глазовский	-11.2039
▁Чегемский	-11.2041
▁Завет	-11.2042
уши	-11.2043
▁Голышманов	-11.2044
▁Медведево	-11.2044
▁Кинешем	-11.2049
▁Илишев	-11.2049
▁Богучанский	-11.2053
▁Пильн	-11.2053
туй	-11.2054
▁Тайшетский	-11.2059
▁Матвеево	-11.206
▁Связист	-11.2063
▁Муравл	-11.2064
▁Менделеевский	-11.2074
▁Надтеречн	-11.2074
▁Воро	-11.208
▁Каргапольский	-11.2081
▁Шипиловск	-11.2085
▁Светлогорский	-11.2087
▁Совхозный	-11.2091
▁Лескова	-11.2093
▁299	-11.2093
уллина	-11.2095
пер	-11.21
Кулом	-11.2107
▁Якшур	-11.2121
▁Казакова	-11.2122
▁Хан	-11.2123
▁Ок	-11.2124
▁Борисов	-11.2128
▁Хутор	-11.2131
▁Тайшет	-11.2131
▁Медногорск	-11.2131
▁Обороны	-11.2142
Бодь	-11.2142
▁Сурикова	-11.2142
▁Дубки	-11.2142
▁Кунашак	-11.2147
▁Добров	-11.215
▁Вач	-11.2152
▁Урюпинск	-11.2156
▁Ракитян	-11.2163
юрт	-11.2164
▁Алатырь	-11.2165
▁294	-11.2168
▁Оричевск	-11.2173
сы	-11.2175
▁Осенняя	-11.2178
▁Томилин	-11.2178
▁Онежский	-11.2183
▁Бол	-11.2183
сунская	-11.2186
▁Тепло	-11.2187
▁Татарская	-11.2193
▁Ромоданов	-11.2204
▁Нефтяник	-11.2206
▁Вел	-11.221
▁Полин	-11.2211
▁Ангарский	-11.2217
▁Юрин	-11.2223
▁Преображен	-11.2224
▁Чернушка	-11.2225
▁Кедровая	-11.2228
▁Дмитриевка	-11.2235
▁Богучарский	-11.2237
02	-11.224
▁Шил	-11.2246
▁Знаменка	-11.2256
▁Бред	-11.2259
▁Нурлат	-11.2262
▁Шаумяна	-11.2262
▁Сусанин	-11.2267
▁Чи	-11.2286
Кадырова	-11.2288
▁Привольная	-11.2288
▁Новопокров	-11.2294
▁5/2	-11.2296
▁Ветлужский	-11.2297
▁Андрея	-11.2299
▁Окружная	-11.2303
▁320	-11.2313
▁Волгоградский	-11.2314
▁Путев	-11.2315
▁Барабинск	-11.2319
▁Моргауш	-11.2319
▁Балашовский	-11.2322
кое	-11.2335
▁Новоб	-11.2337
▁Можайского	-11.2338
▁Башмаков	-11.234
Абаканский	-11.2343
▁Патриот	-11.2346
▁Озер	-11.2349
▁Шигон	-11.2351
▁Куйтун	-11.2367
▁Устюг	-11.2372
25	-11.2373
▁Марьин	-11.2377
▁Караидель	-11.2383
ельская	-11.2387
▁Абдул	-11.2387
▁Бакалинск	-11.239
▁Морской	-11.24
Красноярский	-11.2405
▁Скопинский	-11.2408
23	-11.2414
▁Автолюбитель	-11.2415
ИТ	-11.2416
▁Чишм	-11.2419
▁Максатих	-11.242
▁Корабельная	-11.242
линская	-11.2427
▁Фат	-11.2429
орская	-11.2429
▁Харовск	-11.2438
▁Баз	-11.245
26	-11.2451
▁Степанов	-11.2453
▁Ликино	-11.246
▁Чуйков	-11.2464
▁Колпашевский	-11.2468
▁Инжавин	-11.2468
▁Сыктывдинск	-11.2468
▁Дыб	-11.2468
▁Вил	-11.2468
▁Старицкий	-11.2479
▁16/1	-11.2482
▁Алапаевский	-11.2484
▁Карабаш	-11.2485
▁Обоянский	-11.2485
▁Чеб	-11.2487
▁Кувшинов	-11.2495
▁Мост	-11.2495
▁Михайлова	-11.2498
Вым	-11.2505
▁Клим	-11.2514
▁Невьянский	-11.2514
▁Петропавловский	-11.2518
▁Кем	-11.2521
▁Российский	-11.2529
▁Запорожск	-11.2538
▁Печорский	-11.2544
▁Тре	-11.2546
▁Автомобилистов	-11.255
▁Оль	-11.2551
мор	-11.2555
▁Богородицк	-11.256
▁Черепановский	-11.2561
▁Стро	-11.2561
▁Авиа	-11.2564
▁Городец	-11.2565
баева	-11.2567
▁Золотухин	-11.257
тон	-11.2571
онова	-11.2572
▁Черниговский	-11.2577
/21	-11.2581
заводская	-11.2585
ербиновский	-11.2592
Козлова	-11.2594
▁328	-11.2596
▁Керчь	-11.2597
▁Пыт	-11.2597
Курганский	-11.2598
атова	-11.2598
цевская	-11.26
▁319	-11.2601
▁Баксанский	-11.2604
▁Суворов	-11.2612
▁Ялуторовск	-11.2614
▁Поворинский	-11.2615
каева	-11.2624
▁России	-11.2624
▁Нев	-11.2625
▁Кондинск	-11.2638
▁Двин	-11.2639
▁Мелекесский	-11.2641
цово	-11.2643
▁Кусин	-11.2644
-9	-11.2644
▁Павловка	-11.2648
▁Краснокутский	-11.2657
▁Лихославльский	-11.2677
▁Гал	-11.268
01	-11.268
▁Нагатинск	-11.2689
▁Трубчевский	-11.2689
▁Ореховый	-11.2689
▁Инициативная	-11.269
▁Буздяк	-11.2695
▁Кривошеин	-11.2701
▁Беломорск	-11.2713
▁Елань	-11.272
ездная	-11.2728
рон	-11.2731
▁Тенистая	-11.2734
▁Трунов	-11.2735
▁Кимовск	-11.2736
▁Муромский	-11.274
▁321	-11.2741
▁Лебедян	-11.275
▁Каширский	-11.2758
Гвардейцев	-11.2761
▁Рудн	-11.2762
▁Ивня	-11.2767
▁Ун	-11.277
▁Пограничный	-11.2772
Илецкий	-11.2773
▁Клыков	-11.2778
лева	-11.2781
▁Салавата	-11.2783
▁Суджа	-11.2787
▁Васильевка	-11.2789
▁Ямашева	-11.2789
▁Яковлев	-11.2792
▁Ямская	-11.2793
▁Новосергиевский	-11.2797
▁Кахов	-11.2801
кадемик	-11.2805
▁Кез	-11.2811
▁Гусевский	-11.2811
/25	-11.2812
▁Станиславского	-11.2818
гово	-11.2832
ышева	-11.2832
▁Малин	-11.2833
▁Холмогорский	-11.284
▁Родин	-11.2847
товка	-11.2848
▁Сара	-11.2854
мур	-11.2855
▁Сунженский	-11.2855
▁Кук	-11.2857
▁Котельниковский	-11.2857
▁Козловка	-11.2858
▁Наур	-11.286
ербинка	-11.2862
▁Буйнакский	-11.2864
▁Над	-11.2866
▁Орловка	-11.2871
▁Багратиона	-11.2872
▁Нагорный	-11.2879
/24	-11.2885
▁Черноморск	-11.2885
▁Парашютн	-11.2889
▁Шел	-11.289
▁Избербаш	-11.2894
Сланцы	-11.2895
▁Шилкинский	-11.2895
▁Лис	-11.2898
▁Маслянин	-11.29
орож	-11.2905
▁Дмитровский	-11.2908
▁Кад	-11.291
атка	-11.2911
олёт	-11.2915
СН	-11.2917
▁Рябиков	-11.2918
уново	-11.2922
Краснопартизанск	-11.2922
ега	-11.2926
▁Чекист	-11.2933
▁Краснореченск	-11.2934
▁Ковалевско	-11.2943
мово	-11.2947
▁Малмыж	-11.295
▁Долгоруков	-11.295
▁Зубцов	-11.2951
▁Карачевский	-11.2953
сл	-11.2957
▁Суд	-11.2965
▁Род	-11.2966
▁Партизана	-11.2971
▁Берег	-11.2974
▁Шишков	-11.2977
нда	-11.2985
▁333	-11.2986
рас	-11.2997
▁Же	-11.3001
▁Половин	-11.3001
▁Гафурийск	-11.3003
▁Чист	-11.3009
огорский	-11.3009
▁Ненецк	-11.3012
▁7/2	-11.3016
▁326	-11.3019
/26	-11.3027
▁Тобольский	-11.3027
▁Ивановское	-11.303
▁Облуч	-11.3035
▁Романов	-11.3039
▁Волго	-11.304
▁Парк	-11.3052
▁Топки	-11.3059
▁Кап	-11.306
▁Хасанский	-11.307
▁Апшеронск	-11.3077
▁Новокубанск	-11.3077
▁Бавлинск	-11.3079
▁Шумихинский	-11.3082
умб	-11.3086
▁Горьковский	-11.3086
▁Зубково	-11.3087
ЕЛ	-11.3091
иновская	-11.3093
▁Юргинский	-11.3094
▁Фролов	-11.3095
▁Текстильщик	-11.3099
унова	-11.31
линский	-11.3102
▁Ефремова	-11.3102
▁Днепров	-11.3103
▁Малопургинск	-11.3103
▁Путь	-11.3116
▁Расковой	-11.3121
ины	-11.3128
04	-11.3129
▁323	-11.3131
база	-11.3133
▁Ковровский	-11.3137
▁Серафимович	-11.3139
▁Ши	-11.314
аны	-11.3141
▁Куна	-11.3141
▁Никит	-11.3142
▁Покровский	-11.3146
▁Большеб	-11.3158
кса	-11.3158
▁1905	-11.3162
▁Добринский	-11.3162
▁12-	-11.3165
▁Долгано	-11.3165
▁Бронниц	-11.3166
▁Катукова	-11.3166
юкова	-11.3167
ковского	-11.3174
▁Перов	-11.318
▁Никитин	-11.3182
▁Успен	-11.3184
▁Мамина	-11.3185
▁Глазунов	-11.3185
▁Хользунова	-11.3189
нки	-11.3193
укова	-11.3196
▁Ужурский	-11.3196
▁Бураев	-11.3196
▁Тацинский	-11.3205
▁Абрамова	-11.3207
▁Приволжск	-11.3209
иба	-11.3216
▁Лебяжье	-11.3224
▁Крас	-11.3228
43	-11.3229
▁Тай	-11.3231
▁Лазурный	-11.3241
▁Пестовский	-11.3241
▁Заб	-11.3245
▁Татарск	-11.3246
▁Али	-11.3246
▁Хабар	-11.3251
▁Запрудная	-11.3253
▁Зубчанинов	-11.3253
▁Зенино	-11.3254
▁Дахадаев	-11.3264
Кругликовск	-11.3264
▁Чердын	-11.3276
национальный	-11.3282
▁Остряков	-11.3288
03	-11.3294
▁Уральский	-11.3297
▁Тяжинский	-11.3299
▁Александровская	-11.3304
▁Дубенский	-11.3306
▁Солнцевский	-11.3309
▁Таймырский	-11.331
▁Машиностроитель	-11.3311
▁Рощинская	-11.3315
▁Балезин	-11.3322
енское	-11.3324
▁Саб	-11.3325
▁Западн	-11.3327
рево	-11.3327
▁Портовая	-11.3328
▁Шим	-11.3331
маново	-11.3334
▁Волга	-11.3336
▁Слюдян	-11.334
кр	-11.3341
▁Ярославское	-11.3345
-10	-11.3348
▁337	-11.3348
▁Люберецк	-11.3348
▁Дар	-11.3349
▁Элеваторная	-11.3353
▁Валерия	-11.3363
▁Кубинка	-11.3374
▁Софийская	-11.3375
▁Коломенская	-11.3381
Карабулак	-11.3388
▁20/1	-11.339
▁Иловлинск	-11.3398
Моск	-11.3402
▁Викулов	-11.3404
▁Кичменгск	-11.3404
▁Егорлыкский	-11.3407
▁Егоров	-11.341
▁Нолинск	-11.3412
▁Рублёвск	-11.3428
пруд	-11.3434
иж	-11.3439
▁Сормовск	-11.344
▁Урмар	-11.3441
▁Семи	-11.3441
▁Балтийский	-11.3441
пино	-11.3444
▁Филёвск	-11.3444
▁Бан	-11.3445
▁Магарамкент	-11.3446
▁Васи	-11.3446
Ямский	-11.3446
тех	-11.3451
ловская	-11.3453
елковой	-11.3453
▁329	-11.3455
хова	-11.3459
Агач	-11.3461
▁Глин	-11.3464
▁Михайловское	-11.3468
▁Тейков	-11.3472
▁Сем	-11.3475
▁Топчих	-11.3489
▁Бульварн	-11.349
▁Реки	-11.3499
▁Рабоче	-11.3505
▁Жилой	-11.3507
▁325	-11.351
▁Славянская	-11.3513
▁Чир	-11.3515
29	-11.3519
оева	-11.3519
ическая	-11.352
▁Ишимский	-11.3523
ьянов	-11.3527
▁Ковдорский	-11.3527
▁Просторная	-11.3528
▁Ковернин	-11.3528
▁Гурьянов	-11.3529
▁Лунная	-11.353
▁Скопин	-11.353
▁Протвин	-11.3535
▁Красноярская	-11.3537
▁Первая	-11.3537
▁Завитинск	-11.354
Слобод	-11.3543
▁Геологическ	-11.3548
▁Каш	-11.355
▁Аткарск	-11.3551
▁Смидович	-11.3552
▁Сортавал	-11.3554
▁Камыш	-11.3555
▁Зима	-11.3557
▁Камышлов	-11.3557
тный	-11.3558
▁Пожарского	-11.3558
Завод	-11.3567
▁Костычева	-11.3576
▁Вытегорск	-11.3577
▁Новикова	-11.3577
▁Ялта	-11.3578
▁Озерки	-11.358
▁Почтовый	-11.3582
▁Шелковск	-11.3583
▁Еланский	-11.3585
дель	-11.3586
▁Болотников	-11.3586
▁Сакко	-11.3588
▁Некрасов	-11.3591
▁Верхнех	-11.3591
▁Руднев	-11.36
▁завода	-11.3607
▁Цимлянск	-11.3611
▁Св	-11.3612
комбинат	-11.3612
▁Зеленокумск	-11.3618
▁Тосно	-11.3618
▁Серебряны	-11.362
▁Мензелинский	-11.3621
СК	-11.3624
Мартан	-11.3624
елево	-11.3625
▁Амурский	-11.3625
▁327	-11.3629
▁331	-11.3631
▁Дубравная	-11.3636
▁Спортивный	-11.3636
рат	-11.3638
▁19/1	-11.3638
▁Сум	-11.3639
▁Опалиха	-11.3642
уй	-11.3647
▁Михайловская	-11.3648
▁Яблочкова	-11.3648
Ц	-11.3649
▁Пожарский	-11.366
▁Тере	-11.3663
▁350	-11.3666
▁Текстильная	-11.3666
▁Лопатино	-11.3667
▁Берез	-11.3667
▁Багаевский	-11.3669
▁Воробьев	-11.3669
▁Кукк	-11.3672
ЦАО	-11.3673
▁Беск	-11.3675
▁Валентин	-11.3678
▁Тро	-11.3679
▁Рассветная	-11.3684
ышево	-11.3687
▁Карпов	-11.3689
▁Антона	-11.369
▁Новомихайлов	-11.369
тын	-11.3695
▁Воронова	-11.3696
▁Мариинско	-11.3698
▁Мошковский	-11.3709
▁Землян	-11.3709
▁Орлов	-11.3714
▁Кле	-11.3719
Коллонтай	-11.3721
лекс	-11.3727
▁Вешняковск	-11.3727
▁Земетчинский	-11.3729
▁Днепропетровск	-11.3733
▁Хрустальная	-11.3733
68	-11.3734
▁Харабалинск	-11.374
▁Веселый	-11.3745
▁Аксубаев	-11.3745
-6	-11.3747
▁Бавл	-11.3747
Деповская	-11.3757
▁Вятски	-11.3758
▁Дубров	-11.3762
▁Ольгино	-11.3762
▁Родионово	-11.3764
▁Дербент	-11.3766
▁Федора	-11.3772
озеро	-11.3775
▁Мура	-11.3775
▁Ленск	-11.3782
▁Козлова	-11.3787
▁Уварово	-11.3787
▁Кизел	-11.3788
▁Кирен	-11.379
▁Быково	-11.3792
▁СО	-11.3797
▁Там	-11.3797
▁Колышлей	-11.38
▁Хангаласск	-11.3812
▁Цильн	-11.3812
гулово	-11.3814
▁330	-11.3814
▁Елецкий	-11.3819
гова	-11.3823
▁Прохоровский	-11.3825
▁Лёт	-11.3826
▁Цимлянский	-11.3826
▁Ува	-11.3827
▁Дивеев	-11.3837
53	-11.3841
Вершин	-11.3843
▁Таврический	-11.3846
▁Тарусский	-11.385
▁Аургазинск	-11.3855
▁Верхнебу	-11.3855
▁Соколов	-11.3856
▁Павл	-11.3857
▁Ольгин	-11.3857
▁Красков	-11.386
ельский	-11.3864
▁Валдай	-11.3865
▁Кириллов	-11.3868
лазов	-11.3872
▁Панинский	-11.3873
▁Хлев	-11.3874
▁Чернышевский	-11.3883
ских	-11.3885
▁Чеч	-11.3886
08	-11.3889
▁Ряжский	-11.3894
▁Ключевская	-11.3895
▁Хвойн	-11.3904
▁Новостройка	-11.3904
▁Артинск	-11.3905
▁Староб	-11.3907
▁Тотемск	-11.3911
▁Маш	-11.3913
▁Подвойско	-11.3917
▁Куп	-11.3922
▁Вольский	-11.3923
▁Аллея	-11.3923
▁Шат	-11.3924
удников	-11.3928
▁Называевск	-11.3929
ухина	-11.393
едрина	-11.393
▁Козьмодемьянск	-11.3935
▁Майминский	-11.3935
▁Заволжский	-11.3937
▁Прохладненск	-11.3938
▁334	-11.3941
▁Студен	-11.3943
▁Мельникова	-11.3944
▁Салтыков	-11.395
▁Кирилловский	-11.3951
▁Алма	-11.3951
36	-11.3951
есногорск	-11.3954
▁Тисуль	-11.3954
▁Бах	-11.3955
▁Алдан	-11.3959
▁Зам	-11.3959
▁Зверево	-11.3966
▁Комаров	-11.3968
▁Шлиссельбург	-11.3973
▁Мегино	-11.3973
▁Султан	-11.3973
▁Кыр	-11.3978
▁Давыдов	-11.398
▁Тарасов	-11.3983
▁Аль	-11.3984
иц	-11.3985
▁Тербун	-11.3985
▁Патр	-11.3985
иновка	-11.3988
▁Валуйки	-11.3991
реинский	-11.3994
▁Победа	-11.3994
град	-11.3994
▁Куликова	-11.3994
▁Куз	-11.3997
▁Великолукский	-11.3997
▁Игнатов	-11.3998
▁Сибирский	-11.4
▁10/2	-11.4002
▁Зеленоградск	-11.4008
▁Корне	-11.4008
▁Тюльган	-11.401
▁Рижский	-11.401
▁Казанский	-11.4014
▁Перво	-11.4016
▁Туринский	-11.4016
▁Картал	-11.402
▁Ванцетти	-11.4029
▁Никольская	-11.4029
▁Кузнечик	-11.4029
▁Сыр	-11.4033
▁Светлоград	-11.4035
▁Велиж	-11.4035
▁Шишкин	-11.4039
▁Весна	-11.4042
▁Тракторо	-11.4048
▁Вольская	-11.4049
мба	-11.4052
▁335	-11.4062
▁Крапивинский	-11.4066
▁Прокопьевский	-11.4066
▁Девяткино	-11.4073
▁Университет	-11.4075
▁Галичский	-11.4082
▁Тимирязев	-11.4084
Ям	-11.4087
▁Богатков	-11.4091
▁Родионова	-11.4092
Джегутинск	-11.4098
▁Переволоцкий	-11.4098
▁Мартыновский	-11.4098
▁Мак	-11.4105
▁Котовск	-11.4108
▁Шкотов	-11.411
▁Кошкин	-11.4114
▁Цюрупы	-11.4117
▁Янаул	-11.412
▁Локомотивная	-11.4125
▁Поповка	-11.4126
ельная	-11.4128
▁Маз	-11.413
▁Раев	-11.4132
▁Мичуринец	-11.4134
юг	-11.4142
авочкина	-11.4144
▁Высоковольтная	-11.4145
▁Борзин	-11.4152
Ю	-11.4153
▁Изумрудная	-11.4155
▁Стартовая	-11.4155
▁Трехгорный	-11.417
зан	-11.417
▁Тол	-11.4171
ушка	-11.4173
▁Гур	-11.4174
05	-11.4175
▁338	-11.4176
▁Ленская	-11.4178
▁Анохина	-11.418
Кангаласск	-11.418
▁Устюженский	-11.4187
▁Дюртюли	-11.4192
▁Подгорное	-11.4193
▁Малиновая	-11.4193
▁Малок	-11.4198
▁Худайбердина	-11.4205
▁Шереметьев	-11.4212
▁Перемышль	-11.4212
▁Воронов	-11.4212
▁1/3	-11.4212
▁Сакмарский	-11.4214
▁Приозерск	-11.422
▁Кормилов	-11.4225
▁Чекмагушевск	-11.4227
ница	-11.4237
▁Бузулукский	-11.4237
▁Веден	-11.4239
городок	-11.4243
▁Дедович	-11.4244
▁Марьино	-11.4246
▁Зак	-11.4247
▁Горняков	-11.4249
▁Шимановск	-11.425
▁Стадионная	-11.425
махи	-11.4251
▁Пугачевский	-11.4255
▁Кун	-11.4257
▁Кизильск	-11.4263
▁Лакин	-11.4274
▁336	-11.4277
▁Мокшанский	-11.4278
улман	-11.428
▁Вад	-11.4282
лит	-11.4287
щенко	-11.4292
▁Петров	-11.4294
орт	-11.4295
ковское	-11.4298
▁Азовская	-11.4301
вино	-11.4302
▁Ясногорск	-11.4303
▁Донецкая	-11.4303
▁346	-11.4306
▁Козловский	-11.4306
▁Давлеканов	-11.4307
▁Колом	-11.4311
▁332	-11.4313
▁Юж	-11.4313
▁Пески	-11.4321
▁Юргамыш	-11.4321
арьян	-11.4329
▁Кизляр	-11.4333
▁Москв	-11.4334
▁Открыт	-11.4334
45	-11.434
▁Отрад	-11.4341
▁Сталевар	-11.4346
▁Сарапульский	-11.4347
▁Салмыш	-11.4347
Катав	-11.4347
▁Акушинск	-11.4348
▁Кольцова	-11.4352
▁Центр	-11.4353
▁Крылов	-11.4354
▁Янино	-11.4366
▁Новолак	-11.4368
▁Первомайск	-11.4368
▁Маловишерский	-11.4372
▁Татар	-11.4375
▁Суоярв	-11.4379
▁Еткуль	-11.4392
▁Каспийск	-11.4398
▁Торговая	-11.4398
Ахтарск	-11.44
▁Евгения	-11.4403
нкова	-11.4405
▁Купавна	-11.4405
лик	-11.4409
бай	-11.4413
▁Коло	-11.4417
бино	-11.4422
▁Измайлов	-11.4424
▁Фатеж	-11.4425
▁Марата	-11.4425
▁Апанасенковск	-11.4426
таево	-11.4427
▁Солидарност	-11.4431
▁Романовский	-11.4432
евой	-11.4434
▁Дем	-11.4442
▁353	-11.4443
▁Буг	-11.4443
▁Шатковск	-11.4444
▁Кузьмина	-11.4444
▁Пермяков	-11.445
▁Крыловский	-11.4452
ОК	-11.4455
▁Гдов	-11.4458
▁Мещер	-11.4463
▁Дорожник	-11.4463
Ивановск	-11.447
▁Бардина	-11.4471
▁Дорогобужский	-11.4473
▁Дубовое	-11.4477
имова	-11.4477
лым	-11.4477
▁Рамен	-11.4478
▁Ярослав	-11.4485
рм	-11.4485
▁Ушин	-11.4487
▁Боровск	-11.4487
▁Костомук	-11.449
▁Тракторная	-11.449
ановка	-11.4492
22	-11.4497
анка	-11.4497
▁Звездный	-11.4498
Лотошино	-11.4503
▁Придорожный	-11.4503
48	-11.4504
▁Сухобузимск	-11.4509
▁Липов	-11.451
▁Баш	-11.4511
▁Судак	-11.4511
ищево	-11.4512
▁Дмитриева	-11.4512
▁Звезда	-11.4515
▁Соколова	-11.4516
▁бор	-11.4517
▁Старов	-11.4523
▁Каргасок	-11.4529
▁Жданова	-11.4531
▁Урен	-11.4531
▁Петровка	-11.4534
Профсоюзов	-11.4536
▁Преображенская	-11.4537
▁Хуторская	-11.4543
▁Десеновское	-11.4549
▁просека	-11.4549
▁Вас	-11.4555
▁Русский	-11.4556
▁Гаврилово	-11.4564
▁Мехзавод	-11.4569
▁Аз	-11.4573
▁Хасана	-11.4574
▁Озёрн	-11.4575
▁Мельник	-11.4577
▁Куст	-11.4585
▁Бабынин	-11.4588
▁341	-11.4589
▁Зимовниковский	-11.4589
▁Ольховая	-11.459
▁Ливенский	-11.459
▁354	-11.4594
▁Моркин	-11.4595
▁Профессор	-11.4595
Калманский	-11.46
▁Митин	-11.46
▁Высоцкого	-11.4604
сель	-11.4608
▁Полетаев	-11.4613
▁Карагайский	-11.4617
▁343	-11.4619
▁Черемховский	-11.4622
▁Симонов	-11.4624
таш	-11.4628
▁Островитянова	-11.4628
▁Вожег	-11.4629
▁Зуевский	-11.4629
▁Эльбрусский	-11.4634
▁Калининская	-11.464
▁Неделин	-11.4641
чин	-11.4641
▁Тем	-11.4644
▁Мед	-11.4646
▁340	-11.4656
урово	-11.4656
▁Романа	-11.4661
▁Давыдова	-11.4672
▁Марии	-11.4672
▁Опочецк	-11.4673
▁Кугарчинский	-11.4675
▁Корткерос	-11.4675
▁Кастор	-11.4675
▁Грайворонский	-11.4682
▁12/2	-11.4687
▁Пионеров	-11.4687
▁Дедовск	-11.4688
▁Романовка	-11.4692
▁Возрождени	-11.4693
▁Григорьев	-11.4697
▁Татьяны	-11.4701
кент	-11.4702
▁Репьев	-11.4702
38	-11.4706
▁Кизилюртовск	-11.4716
▁Истринский	-11.4722
▁Физкультурная	-11.4722
▁Ковдор	-11.4723
▁Управленческ	-11.4728
▁Сасово	-11.473
онский	-11.4734
▁Заозерный	-11.4735
▁Атяшев	-11.4735
▁Юрьевец	-11.4736
▁Сызранский	-11.4745
▁Магнит	-11.4748
▁Бижбуляк	-11.4748
▁9/2	-11.475
▁Стрелково	-11.4752
▁Ул	-11.4753
▁Прибрежная	-11.4755
▁Бородина	-11.4756
▁Дуванский	-11.4762
▁Белоглинский	-11.4763
Че	-11.477
▁Львов	-11.4772
▁Унеч	-11.4784
▁Зай	-11.4786
▁Докучаев	-11.4789
▁Сысольск	-11.4789
▁Киреевск	-11.4793
▁Молчанов	-11.4796
▁Папанин	-11.4796
▁Благодарн	-11.4797
▁Яранский	-11.4798
▁6/2	-11.4799
ейка	-11.4801
▁Горячеводск	-11.4802
▁Юрья	-11.4804
джа	-11.4807
27	-11.481
▁Крестецк	-11.4818
▁Селенгинский	-11.4821
▁Санаторная	-11.4823
▁Электрогорск	-11.4823
▁Пачелм	-11.4823
▁Грина	-11.4823
▁Светланов	-11.4823
▁Морозовск	-11.4823
▁Медвед	-11.4826
Люксембург	-11.4826
уково	-11.4833
▁Самар	-11.4833
▁Шадринский	-11.4838
▁Хорольский	-11.4842
▁Бородинская	-11.4851
▁Жилин	-11.4852
ьная	-11.4855
▁Руставел	-11.4857
/27	-11.4863
▁Литейная	-11.4863
енево	-11.4868
▁Ржакс	-11.487
бур	-11.4874
▁Гус	-11.4876
▁Муслюмов	-11.4877
▁Пудож	-11.4877
▁Некоуз	-11.4877
▁Тугулым	-11.4877
▁Тихий	-11.4877
▁Оса	-11.4883
нева	-11.4884
▁Серги	-11.4886
▁Дундич	-11.4891
▁Старожилов	-11.4891
▁СПК	-11.4892
▁Бак	-11.4898
▁Мостовско	-11.49
яева	-11.4903
▁Мил	-11.4907
▁Затон	-11.491
Курдюм	-11.4911
▁Новинки	-11.4911
▁революции	-11.4911
▁Куединск	-11.4916
▁Лиз	-11.4916
▁Новов	-11.492
▁Октябрьск	-11.4921
▁345	-11.4923
▁Фруктовая	-11.4925
▁Бардым	-11.4925
▁27/1	-11.493
▁25/1	-11.4931
▁Окулов	-11.4933
▁Навлинский	-11.4933
▁Голикова	-11.4937
▁Таш	-11.494
▁Ковалев	-11.4941
кш	-11.4943
▁Бель	-11.4948
▁Лукаш	-11.4956
лас	-11.4959
▁Вейделев	-11.4959
▁Онежская	-11.4959
▁Кузьм	-11.4961
▁Горшеч	-11.4966
▁Беринг	-11.4966
Сале	-11.4967
▁Малахова	-11.4967
▁Афанасьев	-11.4969
▁Прибрежный	-11.4973
▁снт	-11.498
▁356	-11.498
▁Нечаев	-11.4987
▁8/2	-11.4988
▁Правобережный	-11.499
▁ж	-11.4992
▁Болого	-11.4993
▁Ровень	-11.4994
▁Нефтегорский	-11.4994
▁Чайка	-11.4994
▁Тбилисск	-11.4998
▁Зерноград	-11.5003
чука	-11.5007
▁Спартаковская	-11.5009
▁канал	-11.5014
▁Прилу	-11.5028
▁Озин	-11.5029
рик	-11.5029
▁Верхнекам	-11.5031
▁342	-11.5031
▁Вичуг	-11.5031
▁Сун	-11.5034
▁Подгорный	-11.5035
▁Круп	-11.5035
▁Бичур	-11.5042
88	-11.5043
▁ПГК	-11.5049
▁Городовиков	-11.5056
▁Минусинский	-11.5057
▁Себеж	-11.5063
▁Менделеевск	-11.5068
09	-11.5069
бак	-11.507
▁Рубцовский	-11.5075
▁Кущевская	-11.5076
▁Яшкинский	-11.5079
▁Северская	-11.5081
▁360	-11.5091
льный	-11.5094
59	-11.5094
▁Дус	-11.5095
▁Олеко	-11.5097
▁Перерв	-11.5097
шк	-11.5098
▁Марша	-11.5099
▁Сараев	-11.5104
▁Белевский	-11.5111
▁Татищевский	-11.5115
▁Смол	-11.5117
▁Липовая	-11.5118
лук	-11.5121
▁Зелёная	-11.5125
▁348	-11.513
▁Мус	-11.513
▁Кошехабль	-11.5132
37	-11.5133
▁Бондар	-11.5138
▁Ков	-11.5139
▁Норильская	-11.514
▁Шев	-11.5141
54	-11.5147
▁Балтийск	-11.5147
▁349	-11.5147
▁Пластовский	-11.5147
еньки	-11.5152
▁Енисейский	-11.5152
▁Звезд	-11.5157
▁Гвардейск	-11.5158
▁Демянск	-11.5168
полье	-11.5173
▁Винокурова	-11.5174
▁Толмачев	-11.5174
▁Калинов	-11.5178
мак	-11.5178
▁Асекеев	-11.5181
▁Пристен	-11.5181
▁Пражская	-11.5188
▁Донского	-11.519
▁Адамов	-11.5194
▁Знаменск	-11.5194
▁Волгодонской	-11.5202
яг	-11.5203
▁Хал	-11.5215
▁Трофимов	-11.5215
▁344	-11.5219
▁общество	-11.5223
▁Екатеринов	-11.5227
▁Спасская	-11.5227
сто	-11.5238
▁Устинов	-11.5238
▁Александрова	-11.524
▁Сысерт	-11.5242
▁Ферзиков	-11.5245
▁Хорошёвск	-11.5245
▁Низ	-11.5249
39	-11.5253
▁Песчаный	-11.5253
▁Болотнинск	-11.5259
▁Иноземцев	-11.5266
▁Осенний	-11.5266
▁Соболев	-11.5266
▁11/2	-11.5267
ром	-11.5269
▁Борисовски	-11.5273
▁Мис	-11.5276
▁Суходол	-11.5291
▁Карабулак	-11.5292
▁Новокос	-11.5295
ухо	-11.5296
▁Плавский	-11.5301
чиха	-11.5313
▁Клинцовский	-11.5315
▁Покрышкина	-11.5323
▁Среднеуральск	-11.5323
▁Дериг	-11.533
▁Полевой	-11.533
▁Голиков	-11.5331
▁Нежин	-11.5332
▁Дрожжин	-11.5337
▁товариществ	-11.5337
▁Гая	-11.5345
▁Нытв	-11.5348
▁Газ	-11.5352
▁Руд	-11.5352
▁Сабинский	-11.5355
▁Савинский	-11.5355
▁Стародуб	-11.5356
▁сельский	-11.5367
/30	-11.5371
йка	-11.5374
▁Воронцовский	-11.5379
▁Могойтуй	-11.538
нцева	-11.5383
▁347	-11.5385
▁Шаран	-11.5385
/28	-11.5385
35	-11.5386
▁Можгинский	-11.5387
▁Ухтомского	-11.5387
▁Мценский	-11.5393
▁Ботлих	-11.5394
▁Манский	-11.5396
чик	-11.5401
▁Суксун	-11.5401
▁Ермак	-11.5406
▁Виталия	-11.5408
▁Лиманский	-11.5409
▁Мияки	-11.541
▁Тарас	-11.541
▁Углегорский	-11.5412
▁Желябов	-11.5416
▁Ягодное	-11.5416
учанский	-11.5416
▁ГПК	-11.5417
Стрелецкая	-11.542
ции	-11.5423
21	-11.5428
▁Черкасская	-11.543
юх	-11.5432
▁Долинский	-11.544
▁Армянск	-11.5444
▁Лобачевского	-11.5444
За	-11.5451
07	-11.5456
▁Селивановский	-11.5459
мон	-11.5464
чен	-11.5466
арово	-11.5473
Бумажников	-11.5473
▁Прохоров	-11.5479
ссы	-11.548
▁Аврор	-11.548
▁Лангепас	-11.5488
▁Дубовка	-11.5493
▁Клетня	-11.5495
▁Хайбуллин	-11.5495
▁Русанов	-11.5495
▁Ижор	-11.5495
урортный	-11.5499
▁Прикубанский	-11.5501
▁Семенова	-11.5505
ыч	-11.5509
▁0	-11.5513
▁Левокумский	-11.5514
▁Шипуновский	-11.5517
▁Цветочный	-11.5524
▁Юсьв	-11.5524
▁Забайкальск	-11.5524
76	-11.5527
▁Европейский	-11.5536
онная	-11.5538
▁Шах	-11.5538
▁Дмитриев	-11.554
▁реки	-11.5546
ульский	-11.555
▁Льгов	-11.5552
▁Бутово	-11.5553
ант	-11.5555
▁351	-11.5557
▁Адлерский	-11.556
▁Кум	-11.5566
▁Художников	-11.5568
▁Выгонич	-11.5569
▁Алейск	-11.5576
▁Юхнов	-11.5582
▁ДПК	-11.5583
▁Дубровский	-11.5585
▁при	-11.5586
▁Баки	-11.5587
▁Полярны	-11.559
▁Петропавловская	-11.5591
хта	-11.5594
▁Слобод	-11.5595
▁Иглино	-11.5596
▁Снежная	-11.5597
▁Ясенев	-11.5601
рах	-11.5611
▁Демидов	-11.5611
▁Кашарский	-11.5611
стер	-11.5612
▁Горел	-11.5616
▁Бежецк	-11.5618
▁Чернов	-11.5626
▁Заречное	-11.5626
▁Агинский	-11.5626
▁Прионеж	-11.5626
▁Талица	-11.5627
▁Шали	-11.5631
▁Измайловский	-11.5634
▁Челюскин	-11.564
▁Палех	-11.5641
▁Пичуг	-11.5641
▁Тюленина	-11.5648
69	-11.5656
▁Воскресенская	-11.566
▁Кондопо	-11.5668
юса	-11.5668
▁Нуриманов	-11.567
▁Кузнецкая	-11.5671
▁Куса	-11.5674
▁Богородское	-11.5676
▁Сасовский	-11.5678
▁Шарлык	-11.5678
▁Кяхтинский	-11.5685
▁Черноголов	-11.5685
▁Федоровка	-11.5686
▁Плюс	-11.5692
▁Огни	-11.5693
▁Александрово	-11.5694
▁Куту	-11.5697
▁Скл	-11.5699
▁Аскин	-11.5699
▁Арзгир	-11.57
▁Ютазинск	-11.5707
▁357	-11.5713
▁Марксовский	-11.5716
ньково	-11.5717
33	-11.572
▁Абатск	-11.5723
▁Шемышей	-11.5729
▁Шур	-11.5733
▁352	-11.5735
▁Лук	-11.5737
Курильск	-11.5738
▁Бас	-11.5748
56	-11.5751
▁Новоузенский	-11.5755
▁Бежаниц	-11.5759
гинская	-11.5761
▁Еловая	-11.5761
▁Реп	-11.5764
▁355	-11.5765
▁Александр	-11.5768
сть	-11.577
▁Имама	-11.5774
славская	-11.578
айте	-11.5781
▁Гидростроитель	-11.5782
▁Багратионовский	-11.5783
▁Большереченск	-11.5785
▁Салтыкова	-11.5786
нского	-11.5791
▁площадка	-11.5793
▁Набережный	-11.5797
▁Миш	-11.5798
▁Ногайский	-11.5804
▁Локтев	-11.5804
итель	-11.5806
▁Черлакский	-11.5806
▁Любим	-11.5806
Задонск	-11.5809
▁Архангельский	-11.5812
товская	-11.5813
▁Жел	-11.5814
78	-11.5815
▁Абрикосовая	-11.5815
▁Олонецкий	-11.5819
▁365	-11.5821
ип	-11.5822
сад	-11.5823
▁Витебский	-11.5826
▁Потапов	-11.5826
▁358	-11.5827
▁Омутнинск	-11.5827
▁Спасское	-11.5828
▁Черная	-11.5832
▁Воронцов	-11.5833
▁Брасов	-11.5834
кун	-11.5836
▁Челно	-11.5839
▁Бабушкин	-11.5843
итово	-11.5848
ёво	-11.5849
▁Вешкайм	-11.5849
▁Новотитаровск	-11.585
▁Крест	-11.5855
Кар	-11.5859
▁Коб	-11.5861
жова	-11.5862
▁Кондратьевский	-11.5865
Городецкий	-11.5867
лах	-11.5868
▁Княжпогост	-11.5871
▁Вознесенский	-11.5882
▁Калтасинск	-11.5885
▁Яблоневая	-11.5886
▁Бохан	-11.5886
▁Бурейский	-11.5886
▁Хвойная	-11.5887
▁Львовская	-11.589
▁Дудинка	-11.5892
▁маршал	-11.5894
▁Таврово	-11.5894
▁Лом	-11.5894
▁Кувандык	-11.5895
▁Уса	-11.5896
▁Орлова	-11.5896
▁Кучино	-11.5897
Тучково	-11.5902
▁Пруд	-11.5903
▁Закаменский	-11.5905
▁Ци	-11.5909
▁Лабы	-11.5909
▁Косыгина	-11.5909
▁Мучкапский	-11.5909
▁Подосинов	-11.5909
▁Шенкурский	-11.5911
▁Семеновка	-11.5919
▁Кольцово	-11.592
▁Шест	-11.592
▁Хохл	-11.5924
▁Таган	-11.5925
67	-11.5928
▁Боготол	-11.5932
▁Большеу	-11.5932
▁Прудов	-11.5938
▁Терновский	-11.5943
▁Зуб	-11.5948
▁Тамал	-11.5951
▁Ленинское	-11.5952
▁Высотн	-11.5955
▁Шаркан	-11.5963
▁Майнский	-11.5967
▁Глебов	-11.597
▁Москаленский	-11.597
▁Сенгилеевский	-11.597
▁Нижнеинга	-11.5977
▁Урюпинский	-11.5978
▁Стрел	-11.5989
▁Куркин	-11.5989
▁Лянтор	-11.5992
▁Райчихинск	-11.5992
▁Кизилюрт	-11.5999
▁Асино	-11.6007
▁Гараж	-11.6007
Невский	-11.6011
ещ	-11.6013
одвинский	-11.6015
▁Артамонов	-11.6015
▁Факел	-11.6015
▁Ольхов	-11.6016
▁Зверева	-11.6023
▁Краснобаковск	-11.6023
▁Нан	-11.6024
▁Локомотив	-11.6026
▁Сай	-11.6029
▁Подрезков	-11.6031
▁Белозер	-11.6034
▁Луж	-11.6038
▁Гаше	-11.605
▁362	-11.6053
▁Весьегонск	-11.6054
▁Новоселки	-11.6056
горье	-11.6058
▁Сузем	-11.6061
▁Очерский	-11.6064
▁Березово	-11.6064
огорск	-11.6065
▁Вах	-11.6066
▁Змеиногорский	-11.6068
▁Ореховая	-11.6069
▁Нижнетавдинск	-11.6069
▁368	-11.6073
▁Стародубский	-11.6079
▁405	-11.608
▁Охинск	-11.608
▁Староюрьев	-11.6084
ОАО	-11.6085
▁Умет	-11.6086
▁Нерехт	-11.6086
▁Завьялов	-11.6086
▁Упоров	-11.6092
▁Торопецкий	-11.6092
ила	-11.6093
▁Карьерная	-11.6101
▁22/1	-11.6106
▁Шелковичная	-11.6107
шня	-11.6115
▁Селижаровский	-11.6115
льди	-11.612
▁Мах	-11.612
▁Губ	-11.6126
▁Коллективная	-11.613
▁Лаган	-11.6131
▁Фин	-11.6132
▁Нариманова	-11.6136
▁Рошал	-11.6138
мич	-11.614
▁Макаров	-11.6141
▁Чулымский	-11.6144
арачаевский	-11.6148
▁Пономарев	-11.6152
▁Радищев	-11.6152
▁Вет	-11.6152
▁Жуковка	-11.6152
▁Парфин	-11.6154
▁Новоспасский	-11.6159
▁Знамен	-11.616
▁Сталинград	-11.6161
▁Дмитриевский	-11.6162
▁Подмосковн	-11.6167
▁Краснополь	-11.6168
▁Дрожжано	-11.6169
▁Березовская	-11.6171
57	-11.6172
▁Таштагол	-11.6177
▁Товарков	-11.6177
▁Оловяннинск	-11.6182
▁Приаргунск	-11.6185
▁Кочетовка	-11.6192
▁Медик	-11.6194
44	-11.6201
▁Новофедоров	-11.6208
▁Вторая	-11.6208
▁Лунинский	-11.621
Вокзальная	-11.6213
яново	-11.6214
▁Бутлеров	-11.6216
▁Нововаршав	-11.6216
▁Тереньг	-11.6216
Высоцкого	-11.6229
▁1/4	-11.6236
ёни	-11.6236
▁Беков	-11.6238
▁Дорожный	-11.6247
▁Криво	-11.6248
ческая	-11.6253
▁Гремяч	-11.6254
▁Афипск	-11.6255
▁Гавань	-11.6255
▁Почтовое	-11.6255
ген	-11.6255
▁Уральск	-11.6258
▁Верхнето	-11.626
▁Перв	-11.626
▁Туринск	-11.6261
▁Муромцевский	-11.6263
▁Береговой	-11.6263
нч	-11.6275
▁Косарева	-11.6278
▁Куш	-11.6278
Турек	-11.6283
▁Беломорский	-11.6284
▁Варненский	-11.6286
▁Елизаров	-11.6286
▁Баг	-11.6294
▁Мордовский	-11.6294
басова	-11.6297
46	-11.6299
▁Левитана	-11.6302
енный	-11.6304
▁Наставни	-11.631
▁Байкалов	-11.631
▁30/1	-11.6311
Неман	-11.6313
▁Мебельн	-11.6317
▁Металлострой	-11.6325
▁Нарткал	-11.6325
▁Вилюйский	-11.6326
▁Уйский	-11.6326
▁Обуховско	-11.6333
▁Хунзах	-11.6333
▁Лю	-11.6333
▁370	-11.6333
анчурин	-11.6334
▁Турку	-11.6334
▁Гуд	-11.6335
▁Власих	-11.6337
▁Молодо	-11.634
▁Колхозный	-11.6341
▁Кумылженск	-11.6341
кальского	-11.6341
▁Вязов	-11.6348
▁Ибрагимова	-11.6348
▁Зар	-11.6349
▁Агидель	-11.6349
▁Васильево	-11.6349
▁409	-11.635
▁Курортная	-11.635
▁Осиновая	-11.6351
▁Ельнинск	-11.6357
▁Корчагин	-11.6357
▁Игра	-11.6357
▁Ген	-11.6359
Кир	-11.6359
▁Мам	-11.6361
▁Суворовская	-11.6365
▁Пинеж	-11.6365
▁Дер	-11.6367
▁Андроповский	-11.6369
▁373	-11.6371
▁Заларинск	-11.6372
▁Петропавловка	-11.6373
▁407	-11.6375
▁24/1	-11.6375
▁Выриц	-11.6381
▁Тюкалинский	-11.6383
▁Морозов	-11.6387
▁Голицыно	-11.6388
▁Зелёный	-11.6388
шкина	-11.6398
▁Безенчук	-11.64
▁Марушкин	-11.64
гач	-11.6405
▁Макеев	-11.6405
идзе	-11.6412
▁Колыванский	-11.6419
▁23/1	-11.642
▁Шукшина	-11.642
▁Егорлык	-11.6424
▁Данков	-11.6424
▁Чаадаев	-11.6426
58	-11.6428
шский	-11.6434
▁Лесопарковая	-11.6436
▁Свирск	-11.6436
▁Мух	-11.6437
▁Суражский	-11.6438
▁Калинино	-11.6445
▁Билибин	-11.6452
/31	-11.6456
Сахалинский	-11.6456
▁Ляд	-11.6457
▁2/3	-11.6464
▁Михнев	-11.6468
угли	-11.6471
▁250-	-11.6473
▁Балтасинск	-11.6474
тайский	-11.6479
▁Рах	-11.648
▁Тургенев	-11.6482
▁Благ	-11.6482
▁Станция	-11.6484
▁Кирсанов	-11.649
▁Верховаж	-11.6492
▁Балаковский	-11.6495
лак	-11.6495
▁Филиппов	-11.6502
▁Невьянск	-11.6503
▁Дзу	-11.6503
▁375	-11.6507
▁Караваев	-11.6509
▁28/1	-11.6514
▁Кагальницкий	-11.6516
Нововят	-11.6517
▁Ребрихинский	-11.6517
▁Конд	-11.6521
▁Жил	-11.6526
85	-11.6527
▁Оханск	-11.653
▁Исетский	-11.653
▁Плеханов	-11.653
▁Шентал	-11.6532
▁Новоясен	-11.6532
▁Канский	-11.6535
▁Царицын	-11.654
▁Кок	-11.6544
ицкое	-11.6545
▁366	-11.6546
▁417	-11.6548
▁Сен	-11.655
Джегута	-11.6556
▁Балахтинск	-11.6558
▁Донское	-11.6558
уева	-11.6561
▁Люблинск	-11.6563
▁Базарный	-11.6564
▁Апастов	-11.6564
▁Любытин	-11.6566
▁382	-11.6567
▁Хлеб	-11.6571
▁367	-11.6571
▁Табасаранск	-11.6572
▁Каргат	-11.6572
▁Силикатная	-11.6573
▁Амирхана	-11.658
▁Клявлин	-11.658
▁Верхнемам	-11.6581
▁Батурин	-11.6589
▁Елхов	-11.6591
▁Рождествено	-11.6592
▁Таллинск	-11.6593
▁Ачит	-11.6597
май	-11.6599
79	-11.6601
▁Куюргазинск	-11.6605
▁Порецк	-11.6605
Западная	-11.6605
мед	-11.6606
▁Дегтярев	-11.6608
яево	-11.6609
▁Коста	-11.661
тым	-11.6612
▁Сидоров	-11.6613
▁371	-11.6621
▁Зональный	-11.6624
▁Карачев	-11.6624
▁Устье	-11.6624
манова	-11.6627
таева	-11.663
▁Лан	-11.6631
▁Зим	-11.6631
▁Лоп	-11.6643
▁Кедровый	-11.6653
▁Сурский	-11.666
▁Содружеств	-11.6661
▁Старос	-11.6665
▁Ворон	-11.6668
▁Рассказов	-11.667
▁402	-11.6671
рус	-11.6672
▁Шевцово	-11.6673
нур	-11.6676
кулово	-11.6679
▁Нязепетровский	-11.6679
▁Ом	-11.668
ряд	-11.6685
▁Таврическ	-11.669
▁Ива	-11.6691
▁Ней	-11.6691
▁Ольшан	-11.6694
▁Воротынский	-11.6697
▁Ибресинск	-11.6698
▁Казбеков	-11.67
▁Ялтинск	-11.6701
▁Берёзовая	-11.6705
▁Ольховатский	-11.6707
▁Куры	-11.6707
ичуринск	-11.6715
щик	-11.6716
атуллин	-11.6717
Кошевого	-11.6719
▁Федорова	-11.672
▁Горохов	-11.672
▁Гордеев	-11.672
▁Екатерин	-11.6723
▁Пошехонский	-11.6727
▁364	-11.6727
ожай	-11.6729
▁403	-11.6735
▁Хмелев	-11.6743
рский	-11.6747
▁380	-11.6749
▁Тум	-11.6757
ицкий	-11.6758
▁Василевского	-11.676
▁Камышинская	-11.6761
▁Струго	-11.677
бута	-11.6774
▁406	-11.6774
▁офи	-11.6776
▁Чем	-11.678
▁Здоровье	-11.678
▁мкр	-11.678
▁Веселов	-11.6782
▁Казанское	-11.6789
▁Мамонтовский	-11.6792
▁Благоварский	-11.6793
▁410	-11.681
▁Полярный	-11.6817
▁Чкаловск	-11.682
▁Косих	-11.6821
▁Литовский	-11.6821
/35	-11.6824
▁Аликов	-11.6828
34	-11.6833
▁Красноборский	-11.6834
▁Виноградовский	-11.6834
▁Горшков	-11.6837
▁Тихоокеанск	-11.6842
▁Теле	-11.6849
▁Пятилетка	-11.6857
▁блок	-11.6857
▁Молостов	-11.6867
▁Думинич	-11.6867
▁Тайга	-11.687
▁404	-11.6871
▁Саянская	-11.6873
▁Хасан	-11.6874
гон	-11.6874
▁Янтарный	-11.6875
75	-11.6876
▁Должанск	-11.6876
▁Крыл	-11.6879
/33	-11.6883
▁Жирнов	-11.6883
▁Красноче	-11.6885
ерёмушкинская	-11.689
▁Трудово	-11.6892
▁Старокор	-11.6894
▁361	-11.6899
▁Романтик	-11.69
▁Ял	-11.6901
лем	-11.6902
▁Знаменское	-11.6905
▁Невская	-11.6907
▁Мухоршибир	-11.6909
▁Фор	-11.6909
▁Алнаш	-11.691
▁Кромской	-11.6917
▁Нагор	-11.6919
▁Новоузенск	-11.6922
▁Русско	-11.6926
▁Большег	-11.6932
зь	-11.6934
рад	-11.6936
▁Калиновка	-11.6937
65	-11.6938
▁Боград	-11.694
▁Ряд	-11.6944
▁Заг	-11.6947
▁Бугурусланский	-11.6954
▁Журавлева	-11.6955
▁401	-11.6958
▁Искров	-11.6959
▁Пестово	-11.6967
▁Нахимов	-11.6969
▁Раздольненск	-11.6973
▁Черкизовская	-11.6976
Дементьев	-11.6976
▁Агала	-11.6976
▁Милослав	-11.6984
Черкассы	-11.6984
ета	-11.6986
▁372	-11.6986
Хаджи	-11.6988
▁Пихтовая	-11.6989
бразования	-11.6992
▁Аксакова	-11.7003
▁Ичалковск	-11.7003
▁Пос	-11.7004
▁Карамзин	-11.7005
▁Екатериновский	-11.7007
▁Татышлинск	-11.7011
▁Ярковский	-11.7014
▁Оха	-11.7016
▁Медвежьегорск	-11.7018
пос	-11.7021
▁Дуд	-11.7021
▁Брод	-11.7026
мас	-11.703
▁359	-11.703
▁Верховский	-11.7031
▁Черных	-11.7034
одский	-11.7037
ровская	-11.704
52	-11.7046
асы	-11.7047
альск	-11.7048
орова	-11.7049
▁Поспелихинский	-11.7052
▁Косин	-11.7052
▁Опарин	-11.7052
цкое	-11.7054
▁Хим	-11.7054
▁Балтачев	-11.7061
▁Зольский	-11.7063
▁Павлино	-11.7068
▁Шербакуль	-11.7068
▁Ху	-11.7069
Краснослободский	-11.7071
▁Краснохолмский	-11.7077
▁376	-11.708
▁Усад	-11.7086
▁Рязановское	-11.7088
▁Томар	-11.709
▁Бодайб	-11.7094
▁Жемчужн	-11.7094
▁Кирсановский	-11.7098
ихино	-11.7103
Зуевский	-11.7105
▁Кай	-11.7108
▁Батарейн	-11.7111
▁Лыс	-11.7111
▁Мокроусов	-11.7112
▁Композиторов	-11.7113
▁Слободская	-11.7113
▁Чудово	-11.7116
▁Мантуров	-11.7119
▁Виктория	-11.7125
▁Охотск	-11.7129
▁Белокурих	-11.7136
▁ВНИИСС	-11.7136
▁384	-11.7137
▁Строительный	-11.714
▁Осиновка	-11.7143
▁Моховая	-11.7143
▁Ярославского	-11.7147
▁Радио	-11.715
▁Пестрав	-11.7154
▁408	-11.7155
Котельниково	-11.7156
▁Захар	-11.7158
▁Катайский	-11.7159
▁Айвазов	-11.7162
▁Тюленев	-11.7162
учье	-11.7166
▁Оп	-11.7166
▁Соловьев	-11.7171
▁Кулундинский	-11.7173
▁Зас	-11.7177
▁Камско	-11.7179
лючинск	-11.7179
▁Водопроводная	-11.7179
▁отдыха	-11.7179
▁Разумн	-11.7179
▁База	-11.7184
уть	-11.7185
▁Пласт	-11.7186
▁Ачинский	-11.7188
▁Райн	-11.7191
▁Одоевского	-11.7194
▁Стройк	-11.7199
49	-11.7204
▁Тат	-11.7212
▁Чанов	-11.7212
▁369	-11.7213
▁Анив	-11.7215
▁Быковский	-11.722
▁Алексеевская	-11.7221
▁16/2	-11.7222
▁Наровчат	-11.7222
дом	-11.7224
▁Новог	-11.7224
▁Рубин	-11.7225
ушкино	-11.7226
▁Шам	-11.7226
Чу	-11.7228
елинского	-11.7236
▁Нагайбакский	-11.7239
▁Тарбагатай	-11.7239
▁14/2	-11.7241
▁Хотьков	-11.7242
том	-11.7243
▁Раздолье	-11.7248
▁Журав	-11.725
▁Латышск	-11.7257
▁Красносельская	-11.7257
▁374	-11.7261
улино	-11.7262
▁Исток	-11.7265
▁Борки	-11.7267
▁Мечетлин	-11.7274
▁Комиссар	-11.7276
икола	-11.7277
▁Выш	-11.7278
▁Гафури	-11.7278
▁Новоржев	-11.7283
▁Вес	-11.7285
▁377	-11.7286
▁Тарногск	-11.7291
▁Слободка	-11.7291
▁Калин	-11.7295
хино	-11.7299
▁Жигули	-11.7302
▁Акбулакский	-11.7303
шен	-11.7304
▁Муз	-11.7306
▁Бебеля	-11.7309
▁Неманский	-11.7309
▁Совхоз	-11.7313
▁Шилово	-11.7317
▁Правдинский	-11.7321
▁Верхнедонской	-11.7326
▁Чернышковский	-11.7326
Красненский	-11.733
▁Лазаревский	-11.7341
▁километр	-11.7344
▁Лахденпох	-11.7344
▁Каменская	-11.7352
▁Исаково	-11.7352
▁Шабалин	-11.7352
▁1/5	-11.7357
▁Пржевальско	-11.737
▁Пром	-11.7372
▁Ильи	-11.7376
▁Ряжск	-11.7376
Сибиряка	-11.7378
▁Арамиль	-11.7387
▁Рыбалко	-11.7387
▁Ермаков	-11.7389
площадка	-11.7391
▁Жданов	-11.7393
▁Кумен	-11.7396
дол	-11.7398
▁Ильичев	-11.7399
▁Камышловский	-11.7402
98	-11.7415
омский	-11.7416
000	-11.7419
▁Александро	-11.742
▁Куль	-11.7422
▁Успенское	-11.7422
▁Фомин	-11.7427
▁Апрел	-11.7427
▁Ясен	-11.7427
▁415	-11.743
▁Белобородов	-11.7431
▁Ленсовет	-11.7431
▁Сотников	-11.7431
▁363	-11.7432
▁Конышев	-11.7437
▁Автодорожная	-11.744
▁Весенний	-11.744
▁Пичаев	-11.744
▁Пущино	-11.744
▁Колпашев	-11.7441
▁Обь	-11.7446
▁400	-11.7446
▁Прибайкальский	-11.7449
▁Тоншаев	-11.7449
▁Владимировка	-11.7454
▁Передов	-11.7459
▁Приютов	-11.7466
66	-11.7472
▁Тимошенко	-11.7478
▁13/2	-11.7482
▁Мамонтов	-11.7489
▁Кожевниковский	-11.7491
▁Верхневилюйск	-11.7502
▁Верхотур	-11.7502
▁Гранитн	-11.7502
▁Гос	-11.7504
▁Вагайский	-11.751
▁Одес	-11.7513
▁Зимин	-11.7514
▁Реч	-11.7514
чки	-11.7515
ишево	-11.7516
▁Волна	-11.7516
гинское	-11.7521
▁ОАО	-11.7522
▁Талов	-11.7524
47	-11.7524
/32	-11.7528
▁Стасова	-11.7529
Несветайский	-11.753
рг	-11.7531
Су	-11.7532
▁Кабан	-11.7534
▁412	-11.7535
▁Лап	-11.7537
▁Пас	-11.7546
▁Лодейное	-11.7546
▁Херсонская	-11.7546
▁Застав	-11.7546
▁Рефтинск	-11.7546
▁Воробьевский	-11.7552
▁Троицко	-11.7552
▁Демократическ	-11.7555
▁Рахманинова	-11.7555
▁Правд	-11.7559
▁Суханов	-11.7559
▁Касли	-11.7563
лер	-11.7564
▁Архитекторов	-11.7571
▁Ивдель	-11.7573
▁Купчин	-11.7573
строя	-11.7573
▁Мокр	-11.7576
▁Игор	-11.758
▁Баган	-11.758
▁Лебяж	-11.758
▁Лихачевск	-11.7582
▁Богослов	-11.7582
овщина	-11.7584
▁Удор	-11.7584
▁Тёплый	-11.7591
▁Чулым	-11.7593
▁397	-11.7595
▁Нерчинск	-11.7598
▁Сир	-11.7598
▁Камешкир	-11.7599
96	-11.7606
▁Енотаевский	-11.7609
▁379	-11.761
▁383	-11.7616
▁Комарич	-11.7617
▁Наличн	-11.7617
▁Брати	-11.7618
▁Могочин	-11.7619
▁Салют	-11.7625
▁Шир	-11.7628
▁Нем	-11.7629
▁Шатровский	-11.7634
▁Ахтыр	-11.7635
▁Блинова	-11.7635
▁Семафорная	-11.7644
ытищинск	-11.7661
▁Трудовой	-11.7669
▁Мусоргского	-11.7671
▁Мате	-11.7674
▁381	-11.7674
▁раз	-11.768
▁Шумих	-11.7683
/29	-11.7684
Булагатск	-11.7689
▁Исакл	-11.7689
Кантауров	-11.7689
▁388	-11.7695
▁Сернурский	-11.7695
▁Боевая	-11.77
▁Громовой	-11.7707
▁Нюрбин	-11.7707
▁Улёт	-11.7707
▁Эхирит	-11.7707
▁Ермаковский	-11.7708
сино	-11.7711
▁Сторожев	-11.7716
дур	-11.7721
▁Дудин	-11.7724
▁394	-11.7725
▁Загородный	-11.7725
▁Чапаев	-11.7727
▁386	-11.7731
▁Захаров	-11.7734
▁Мосфильмовск	-11.7734
▁Федюнин	-11.7734
▁Панина	-11.7739
▁Востряков	-11.7744
▁Рамешковск	-11.7744
▁ПК	-11.7746
▁Марьяновский	-11.7747
▁Корот	-11.7748
мут	-11.7748
▁Даровской	-11.7753
▁Международная	-11.7762
Либкнехта	-11.7768
сон	-11.7769
▁Отдых	-11.7771
▁местечко	-11.7771
Смородин	-11.7771
▁Универси	-11.778
▁Выборн	-11.778
рта	-11.778
▁Сергач	-11.7783
▁Раздольно	-11.7783
▁18/2	-11.7787
▁378	-11.7788
байкальск	-11.7788
▁Нефтегорск	-11.7788
▁Новосиль	-11.7789
▁Енисейск	-11.779
▁Кас	-11.7791
▁Ширинский	-11.7792
▁Дальневосточная	-11.7794
▁Тарумов	-11.7798
▁Мезен	-11.7798
▁411	-11.7801
▁Перелюб	-11.7807
▁Апрельская	-11.7807
▁Старомай	-11.7808
▁Городская	-11.7812
▁Бекетов	-11.7816
▁Вятская	-11.7817
▁Надеждин	-11.7817
▁Илекский	-11.7817
▁Мохов	-11.782
▁Пискарёв	-11.7826
▁Абанский	-11.7826
▁Новои	-11.7826
▁Топ	-11.7827
▁Рыл	-11.7832
▁Юрьевецкий	-11.7836
▁Кирпичный	-11.7838
▁Луговое	-11.7838
▁395	-11.7839
▁Куч	-11.7842
▁Черников	-11.7843
▁Домбаровский	-11.7844
▁Залив	-11.7844
▁Мещовск	-11.7844
▁Дигор	-11.7845
▁Ольховка	-11.7852
▁ГАРАЖН	-11.7854
атского	-11.7855
▁Камчатск	-11.7858
▁Беляев	-11.7861
ольное	-11.7866
▁Чек	-11.7875
▁Хомутов	-11.7876
▁Том	-11.7878
▁Ромашка	-11.7881
евых	-11.7883
▁Монастыр	-11.7883
▁Шиш	-11.7887
▁Ртищевский	-11.789
▁Кайтагск	-11.789
▁Бик	-11.7891
жан	-11.7894
▁Смирных	-11.7899
▁горка	-11.7899
▁Студенческий	-11.7899
▁Ковальчук	-11.7908
▁Елецкая	-11.791
СТРО	-11.7917
▁Кочкуров	-11.7917
Кравченко	-11.7917
огр	-11.7918
▁Сенная	-11.792
▁Пож	-11.7923
▁Казан	-11.7924
▁Курчатовский	-11.7926
▁Демидовский	-11.7928
▁Ферганск	-11.7937
▁Хур	-11.7939
▁Летн	-11.794
▁Дальний	-11.7945
▁Полтавский	-11.7946
▁Старых	-11.795
▁Ловозер	-11.7954
▁392	-11.7966
▁Брестская	-11.7971
▁Удальцов	-11.7973
▁Андропов	-11.7977
▁Остр	-11.7977
▁Обская	-11.7982
▁Краснолесь	-11.7982
▁Мотыгин	-11.7982
▁Кременк	-11.7982
▁Новоля	-11.7984
▁Таманская	-11.7984
енино	-11.7987
▁Песчан	-11.7991
▁Гайн	-11.7991
▁Сельцо	-11.7992
▁Молод	-11.7996
▁Десантник	-11.8001
▁Георгиев	-11.8002
▁Адор	-11.8006
▁Испытател	-11.801
▁Колосов	-11.8011
▁15/2	-11.8013
▁Горский	-11.8015
▁Ермекеев	-11.8019
▁Савельев	-11.802
ацаева	-11.802
▁414	-11.802
▁Хади	-11.8029
▁Плещеев	-11.8029
▁Кочетова	-11.8029
▁Лучегорск	-11.8029
▁Тевриз	-11.8029
▁Черемшанский	-11.8029
▁Беловежск	-11.8029
▁Сеченовский	-11.8031
▁Бикин	-11.8031
▁Буинск	-11.8034
стовская	-11.8034
▁Ипподромная	-11.804
говский	-11.8045
▁Тарко	-11.8045
▁Кизнерский	-11.8047
▁Ноглик	-11.8047
▁Анапское	-11.805
мол	-11.8051
▁31/1	-11.8056
▁Рижская	-11.8057
▁Рудня	-11.8061
▁Стрельн	-11.8061
▁Перекопская	-11.8065
▁Рос	-11.8066
нем	-11.8066
▁Ржевский	-11.8066
▁391	-11.8071
▁Сунжа	-11.8076
▁Новосергиев	-11.8089
63	-11.809
▁424	-11.8099
▁Локня	-11.8104
▁Оборонная	-11.8104
▁Агро	-11.8104
адаева	-11.8108
▁Белозерск	-11.8113
▁Краснотуранск	-11.8113
▁Дуброва	-11.8115
▁393	-11.8117
▁Кувандыкский	-11.8122
Кишерт	-11.8123
▁Костино	-11.8125
Устьинский	-11.8129
▁Серафимовича	-11.813
▁Алар	-11.8134
▁Холмы	-11.8135
▁Серышевский	-11.8139
▁Новоиванов	-11.8141
▁Яльчикский	-11.8143
▁Хилокский	-11.8145
▁Седельников	-11.8151
▁Боч	-11.8151
▁Кип	-11.8152
▁Посадская	-11.8157
▁Авиатор	-11.8157
▁419	-11.8165
▁Ташл	-11.8167
▁Евдоки	-11.817
▁Краснощёков	-11.817
▁Красногородск	-11.817
▁Льговский	-11.8171
▁Барб	-11.8172
▁425	-11.8176
▁Врач	-11.818
▁387	-11.8185
▁Живописная	-11.8189
▁Таежный	-11.8189
▁Янтиков	-11.8189
диева	-11.8191
▁Фонтан	-11.8196
▁Тав	-11.8199
▁385	-11.8199
вье	-11.8201
▁Кондр	-11.8204
▁Баев	-11.8205
▁Киквидзе	-11.8208
ельма	-11.8216
▁Супонево	-11.8217
▁Галич	-11.8219
▁Торбеевский	-11.8221
▁Глинка	-11.8222
▁Зуев	-11.8222
телей	-11.8222
62	-11.8224
▁Самойловский	-11.8224
▁Пад	-11.8226
▁Виль	-11.8228
▁Болховский	-11.8233
▁сельсовет	-11.8236
▁Пугачевская	-11.824
▁413	-11.8244
▁КООПЕРАТИВ	-11.8246
▁Шин	-11.825
▁Ил	-11.825
▁427	-11.8252
▁Стерлибашевский	-11.8252
лушицкий	-11.8253
▁Пен	-11.8254
▁Долина	-11.8255
▁Промышленный	-11.8255
▁Онег	-11.8255
/40	-11.8256
▁Дубинин	-11.8256
▁Уют	-11.8257
▁Маг	-11.826
▁Чугуевский	-11.8262
▁Кратов	-11.8262
▁Хи	-11.8264
▁Кочубея	-11.8265
▁Супсех	-11.8265
▁Санчурск	-11.8265
▁Медвенский	-11.8268
▁Ярово	-11.827
▁Хусаин	-11.8274
▁Параньг	-11.8274
▁Калининск	-11.8276
▁Нюксен	-11.8284
▁Гер	-11.8285
▁Носов	-11.8285
▁Южа	-11.8286
▁Власова	-11.8294
▁Воздвижен	-11.8294
▁Пряжинск	-11.8294
Корсакова	-11.8294
нькино	-11.8294
▁Первостроителей	-11.8295
▁Пушкар	-11.8298
▁Сигнал	-11.8303
▁Левашов	-11.8303
▁Хворостян	-11.8316
▁Магомеда	-11.8317
▁Коли	-11.8319
ушина	-11.8322
▁Черноярский	-11.8322
▁Вишер	-11.8322
▁Хам	-11.8325
/37	-11.8331
▁Анучин	-11.8332
▁Светл	-11.8333
▁Серебрист	-11.8342
▁Уфимская	-11.8342
▁Гафи	-11.8342
▁Герасимов	-11.8344
▁Солон	-11.8345
▁Вишневый	-11.8347
▁Попов	-11.8349
▁Энергетическая	-11.8354
▁Анадырский	-11.8357
▁Кольцо	-11.836
▁Пермская	-11.8361
▁Шор	-11.8361
▁лог	-11.8372
▁390	-11.8373
▁Алатыр	-11.8376
▁Калязин	-11.8377
▁Кооперативный	-11.8381
▁Никифоровский	-11.8382
ПО	-11.8385
▁Бригады	-11.839
▁Измалков	-11.839
лиха	-11.8391
▁Андреева	-11.8391
ульская	-11.8398
▁Княж	-11.84
74	-11.8404
Разведчиков	-11.8405
▁Копылов	-11.8409
Данченк	-11.841
▁Гаврил	-11.8415
утовская	-11.8416
левка	-11.8419
▁Каменный	-11.8423
▁Ев	-11.8423
ушникова	-11.8426
▁Вязовка	-11.8429
▁396	-11.8432
32	-11.8434
гол	-11.8435
▁Державин	-11.8438
унь	-11.8439
▁Ташлинск	-11.8443
▁Родинский	-11.8447
▁Вихорев	-11.8448
▁Алеши	-11.8451
▁Логовая	-11.8451
▁Свобод	-11.8452
▁Терек	-11.8453
▁389	-11.8456
▁Римского	-11.8458
▁Митинск	-11.8461
▁29/1	-11.8463
▁Орбитальн	-11.8465
▁Ленино	-11.8465
▁Груз	-11.8477
▁Крюково	-11.8477
▁Мамон	-11.848
▁Мильков	-11.8481
станская	-11.8485
▁416	-11.8486
тьма	-11.8486
▁Чухлом	-11.8487
▁Ханкайск	-11.8487
▁Летняя	-11.8487
неж	-11.8489
▁Круг	-11.8494
▁Шебалин	-11.8497
▁Команд	-11.8497
▁Краснофлот	-11.85
▁Инза	-11.85
▁Ударная	-11.8504
ют	-11.8505
▁Областн	-11.8507
▁Уватский	-11.8507
▁Магистральный	-11.8507
▁Дегтярск	-11.8514
▁Кадом	-11.8516
▁Белохолуницк	-11.8516
▁Мясников	-11.8517
вицы	-11.8517
▁Шеф	-11.852
▁Серебряный	-11.852
▁Поворин	-11.8534
▁Пучежский	-11.8536
▁Тимуров	-11.8536
▁Княгинин	-11.8546
99	-11.8546
▁Яг	-11.8547
▁Высокое	-11.8552
итовая	-11.8553
усово	-11.8557
▁Туркменский	-11.8559
▁Монастырщин	-11.8563
▁Тогучин	-11.8563
▁Галкин	-11.8566
/38	-11.8567
иных	-11.8568
ольская	-11.857
▁Мглинский	-11.8571
▁Абрамов	-11.8574
▁Нехаев	-11.8575
▁Путейская	-11.858
▁Кондров	-11.8583
▁Успенская	-11.8584
▁Олекминский	-11.8584
▁Водопьянова	-11.8585
▁Белградск	-11.8586
▁Камышовая	-11.8586
▁Обухово	-11.8592
▁Новоульяновск	-11.8595
▁Куженер	-11.8595
емировича	-11.8595
▁Лесные	-11.8596
▁Назаровский	-11.8605
▁Выс	-11.8607
▁Рыбацк	-11.8608
▁Политехническ	-11.8615
▁Аксенов	-11.8615
▁Дум	-11.8616
▁Стрелка	-11.8624
ижанов	-11.8626
лог	-11.8628
▁Счастливая	-11.863
▁Романова	-11.8632
▁Пристань	-11.8635
▁17/2	-11.865
▁Ужур	-11.8652
▁Дядьков	-11.8655
▁Бутурлинский	-11.8655
▁Тасеев	-11.8657
▁Арск	-11.8658
▁Дос	-11.8662
▁Тарус	-11.8674
▁Козуль	-11.8676
▁Кронштадтская	-11.8679
▁Васильковая	-11.8679
▁35/1	-11.8681
▁Починок	-11.8684
▁Вольный	-11.8685
▁1/7	-11.8687
ауля	-11.8694
▁Луг	-11.8697
▁Голубин	-11.8704
▁Монахов	-11.8704
▁Марченко	-11.8707
чье	-11.8711
▁399	-11.8715
щино	-11.8715
▁24/2	-11.872
▁Липовка	-11.8721
▁Бехтерева	-11.8724
▁Новопавловск	-11.8725
Енисейский	-11.8727
мунд	-11.8729
▁Мелиоратор	-11.8731
▁Советское	-11.8731
▁Приборостроител	-11.8734
▁Госпитальн	-11.8734
етинкина	-11.8734
▁Серед	-11.8736
▁398	-11.8737
сокольнический	-11.874
▁Пролетар	-11.8743
ачное	-11.8748
▁Лиман	-11.875
▁Декабря	-11.8754
▁Кореневский	-11.8756
▁Голованов	-11.8757
▁Плот	-11.8757
пром	-11.8764
▁Тоцкий	-11.8765
▁Монин	-11.8772
▁Здвинск	-11.8775
▁Сосенский	-11.8775
▁Шубин	-11.8776
▁Шумяч	-11.8776
▁Магас	-11.8776
▁418	-11.8776
▁Окская	-11.8777
▁Нам	-11.8782
тернационалистов	-11.8783
▁Лихачева	-11.8785
▁Буз	-11.8786
▁Гусаров	-11.8786
▁Колпин	-11.8792
Огарев	-11.8796
Морозова	-11.8798
▁Янгел	-11.8799
▁Шегарский	-11.8805
▁Полбин	-11.8806
▁Тульский	-11.8808
▁Благоев	-11.881
▁Карачаевск	-11.8812
▁Полю	-11.8815
▁Зайцева	-11.8816
▁Солецкий	-11.8816
▁Веселовский	-11.8818
▁Васильков	-11.882
▁Толст	-11.8825
▁Пролетарск	-11.8826
▁Гагин	-11.8828
86	-11.8829
▁Вос	-11.883
▁Медынский	-11.8836
▁Литвин	-11.8842
▁Богатов	-11.8846
хметова	-11.8847
чур	-11.8847
ушино	-11.8848
▁428	-11.8849
▁Рог	-11.8849
▁Духовщинский	-11.886
▁Некрасовская	-11.8863
▁Ольховский	-11.8863
64	-11.8864
▁Лысогорский	-11.8865
▁Ударников	-11.8866
▁Брате	-11.8868
▁Болот	-11.8869
шинская	-11.8875
строительн	-11.8875
▁Падун	-11.8876
▁Тюменцев	-11.8886
▁Туруханск	-11.8886
▁Сумско	-11.8887
▁Хохряков	-11.8887
▁Нерчинский	-11.8887
▁Темниковский	-11.8896
станаев	-11.8896
▁Тонкин	-11.8896
Макл	-11.8904
▁Солнечнодольск	-11.8906
▁Урупский	-11.8906
▁Дергачев	-11.8906
▁Алмазн	-11.8906
▁Краснок	-11.8909
▁Новошешминск	-11.8916
▁Венгеров	-11.8916
▁бокс	-11.8919
▁Пыталов	-11.8928
гры	-11.8928
▁Майн	-11.8933
стов	-11.8935
▁Червлен	-11.8937
▁Фален	-11.8937
▁Климово	-11.894
зян	-11.8941
▁Урманче	-11.8947
▁Мосальск	-11.8947
▁Джанкой	-11.8956
▁Кокошкин	-11.8957
Восточный	-11.8961
▁парк	-11.8971
▁Клубный	-11.8978
▁Микл	-11.8978
▁Бисерт	-11.8978
/36	-11.8985
▁Уваровский	-11.8985
▁Учебная	-11.8988
▁Духовницк	-11.8988
▁Зипов	-11.8989
▁Полтав	-11.8991
▁Черноисточинск	-11.8998
▁Библиотечная	-11.9
▁Воронина	-11.9001
Печерская	-11.9003
▁Серго	-11.9005
▁Неверкин	-11.9009
▁Авиационный	-11.9019
▁Бойцов	-11.9019
▁Майдан	-11.902
▁Шап	-11.9024
▁Алаб	-11.9025
▁Ноября	-11.9029
▁Зырянск	-11.9029
▁Нагорное	-11.9031
▁429	-11.9031
▁Варгашинск	-11.9032
▁Демин	-11.9034
гей	-11.9041
ухова	-11.9045
▁Нор	-11.9047
▁Казачинско	-11.9048
▁Кежемский	-11.905
куш	-11.905
▁Сивер	-11.9051
▁Раевский	-11.9056
ьный	-11.9059
▁Ирбей	-11.906
▁423	-11.9067
▁Полянка	-11.9067
▁422	-11.907
▁Бакчар	-11.907
▁Мамадыш	-11.9081
▁Беслан	-11.9081
▁Емва	-11.9081
▁Старополтавск	-11.9081
▁Сладков	-11.9081
▁Денис	-11.9082
▁Нач	-11.9082
▁Тул	-11.9082
инцев	-11.9091
▁Приречн	-11.9091
рян	-11.9095
▁Идринск	-11.9102
▁Леваневского	-11.9102
▁Чагодощенский	-11.9102
▁Чугунов	-11.9102
Линдов	-11.9102
еличковск	-11.9102
▁Петрово	-11.9103
▁Сунтарский	-11.9104
▁Южноб	-11.9106
▁426	-11.9107
▁Курманаев	-11.9112
▁Клетский	-11.9113
▁Шемурш	-11.9122
▁Столичн	-11.9122
▁Ровенский	-11.9133
▁Стачки	-11.9133
▁Волчихинск	-11.9133
ашкинский	-11.9139
имово	-11.914
▁Козлов	-11.9141
Куба	-11.9142
Ермолино	-11.9143
▁Лейтенант	-11.9144
▁Керамик	-11.915
▁Электрон	-11.9152
▁Тракт	-11.9153
▁Становлянск	-11.9154
▁Гергебиль	-11.9154
▁Горбатов	-11.9154
▁Почеп	-11.9154
▁Бондаренко	-11.9156
▁421	-11.9163
емерницк	-11.9164
▁Борзя	-11.9164
▁Корнилов	-11.9164
▁Рогачев	-11.9164
▁Чуваш	-11.9169
92	-11.917
▁Вит	-11.9173
▁Липовый	-11.9173
▁Яйский	-11.9175
▁Байкальск	-11.9179
▁Нас	-11.9183
▁Краснопутилов	-11.9185
▁Чернореченская	-11.9185
▁Кулунд	-11.9192
▁Тункинск	-11.9196
▁Раскольн	-11.9196
▁Баррикад	-11.9203
▁Сандов	-11.9207
▁Тимофе	-11.9208
▁440	-11.921
ыково	-11.9213
▁Красносельско	-11.9214
▁Молодцов	-11.9214
▁Любимский	-11.9215
▁Абрамцев	-11.9217
▁Земляничная	-11.9217
▁Рудничный	-11.9217
▁Юсуп	-11.9217
▁Чик	-11.9219
двор	-11.9226
▁Сорокин	-11.9227
▁Дебес	-11.9227
▁Вольная	-11.9227
▁Макарьевский	-11.9229
▁Жар	-11.9231
▁435	-11.9235
▁Макушин	-11.9237
скохозяйственная	-11.9238
▁Москов	-11.9243
▁Чеп	-11.9243
▁Ум	-11.9244
▁Масленников	-11.9248
▁Благодатная	-11.9248
▁Кваркен	-11.9248
▁Теплов	-11.9252
▁Любы	-11.9257
▁Дновск	-11.9259
▁Часов	-11.926
▁Бурова	-11.9268
▁Сямж	-11.9269
лип	-11.9272
Джалиля	-11.9275
▁Ильмен	-11.9291
▁Мензелинск	-11.9306
▁Иртышская	-11.9307
▁Хлебозаводск	-11.9312
95	-11.9312
▁Полесск	-11.9316
▁Три	-11.9323
Юртовский	-11.9327
▁Вяз	-11.9331
▁Чигири	-11.9333
▁Сретенский	-11.9335
▁Видова	-11.9336
▁Ракит	-11.9336
▁Мелиоративная	-11.9338
ницкого	-11.9339
▁Лет	-11.9343
▁Баженов	-11.9343
▁Тархова	-11.9344
▁800-	-11.9344
илии	-11.9347
▁Первый	-11.935
▁Соколово	-11.9352
вого	-11.9355
ковичи	-11.9357
▁Благовещен	-11.9363
▁Фомина	-11.9364
▁Резерв	-11.9365
▁Гущин	-11.9366
▁Кубан	-11.9366
▁Каргал	-11.9366
▁Борис	-11.9367
иловка	-11.9375
▁420	-11.9379
▁Власихинск	-11.9381
77	-11.9386
▁Плиев	-11.9389
▁Хомутовский	-11.9394
▁Нарвск	-11.9398
▁Союзный	-11.9398
▁Быт	-11.9398
▁Кленов	-11.9399
▁Гарь	-11.9402
▁Денисов	-11.9406
▁Гвардии	-11.9408
▁партнерство	-11.9408
змайловский	-11.9417
▁Ижморский	-11.9418
▁Софрино	-11.9418
▁Иртыш	-11.9423
▁Кузнецово	-11.943
▁Починки	-11.944
▁Новоселицкий	-11.9444
▁Гришин	-11.9447
▁Водников	-11.9448
▁Дуброво	-11.9449
газ	-11.9449
▁Шумилова	-11.9451
▁433	-11.9452
▁Чурапчинский	-11.9452
Цил	-11.946
▁Ермолов	-11.9461
▁Спи	-11.9463
▁Альменев	-11.9472
▁Молокова	-11.9472
Бор	-11.9476
▁Побед	-11.9476
▁Елены	-11.9483
▁Эм	-11.9493
▁Багаевск	-11.9494
▁промышленная	-11.9499
▁Балезино	-11.9505
▁Песков	-11.9505
▁Рыльск	-11.9509
/43	-11.9511
▁Пономарева	-11.9512
▁Малоархангельск	-11.9515
▁Ладо	-11.9516
▁Георгиевская	-11.9517
▁Рот	-11.9521
▁Росл	-11.9525
луж	-11.9526
▁Садоводство	-11.9526
▁Сафакулев	-11.9526
▁Хабез	-11.9526
▁Писарев	-11.9526
озёрн	-11.9526
▁Савино	-11.9531
▁Чистоозерный	-11.9531
▁Гот	-11.9531
▁Русское	-11.9535
▁436	-11.954
линского	-11.9541
▁Глух	-11.9546
▁Солнечное	-11.9548
▁Платов	-11.9556
▁Сабуров	-11.9556
▁КС	-11.9557
▁Мерт	-11.9558
▁Энерго	-11.9559
▁Бурзян	-11.9559
▁Ардонский	-11.9562
▁Ракет	-11.9569
▁Старощерб	-11.9569
▁Ижемский	-11.957
▁Калининец	-11.957
тебли	-11.9571
▁Пышминский	-11.9581
▁Воин	-11.9584
Тихон	-11.9584
▁Балакирев	-11.9591
▁Пустошкин	-11.9592
▁Лопатина	-11.9592
▁430	-11.9593
▁Кожевников	-11.9594
черниговский	-11.9602
▁Оконешников	-11.9602
▁Джидинск	-11.9603
ОТ	-11.9605
▁Лум	-11.9607
▁Белев	-11.9608
▁Эр	-11.9613
▁Углеуральск	-11.9613
▁Ардатов	-11.9616
▁Краснополянск	-11.9621
▁Вуктыл	-11.9624
▁Верхоянск	-11.9624
▁Океан	-11.9624
▁Левобережная	-11.9627
▁Каратузский	-11.963
жино	-11.9641
▁Аромашев	-11.9646
▁Наумов	-11.9646
▁Чистяково	-11.9646
▁Намский	-11.9648
▁Конструктор	-11.9657
▁Кулешовка	-11.9657
▁Порт	-11.9658
▁Митрофанов	-11.9659
ёвка	-11.9664
▁Смирнов	-11.9666
▁Бабаюртовск	-11.9668
▁Белокатайск	-11.9668
▁Нижнедевицк	-11.9668
▁Яковлева	-11.9668
▁Веерная	-11.9669
▁Детская	-11.9669
▁Белоозер	-11.9671
▁Борисово	-11.9672
гм	-11.9675
▁Берёзов	-11.9676
▁Лукино	-11.9686
▁Миллион	-11.969
▁Сул	-11.9694
▁Староша	-11.9698
▁Алейский	-11.9702
овичи	-11.9704
▁Тальмен	-11.9704
▁Давыдовский	-11.9705
87	-11.9708
▁железнодорожно	-11.9712
▁Путилов	-11.9712
▁Короткая	-11.9712
▁Камышев	-11.9714
▁Дружная	-11.9714
▁Стру	-11.9728
теп	-11.973
▁Лосев	-11.9735
▁Ефимов	-11.9736
▁Проспект	-11.9745
▁Шамиль	-11.9745
▁Урицкий	-11.9746
▁Кадырова	-11.9755
жева	-11.9757
▁Лесников	-11.9758
▁Комитетск	-11.9767
▁Рузаевский	-11.9769
▁Бурд	-11.9772
▁Трамвайн	-11.9779
▁Капотня	-11.9779
▁Кулибина	-11.9779
▁Хадыженск	-11.9779
ерез	-11.9779
▁Мику	-11.9783
Космодемьянской	-11.9799
▁Гариба	-11.9801
▁Козино	-11.9803
▁Ол	-11.9804
▁Новосельская	-11.9806
▁Хос	-11.9809
башев	-11.981
▁Ильино	-11.9814
Деменск	-11.9815
зем	-11.9822
▁Бассейн	-11.9823
▁Шумаков	-11.9823
▁Сивин	-11.9824
▁Лаври	-11.9828
▁Саргатский	-11.9828
▁Гуниб	-11.9834
▁Качугский	-11.9835
▁Брянского	-11.9838
▁432	-11.9839
▁Лигов	-11.9841
лейка	-11.9844
султан	-11.9846
▁Хол	-11.9849
▁Рублев	-11.9855
▁Айхал	-11.9857
ерезниковский	-11.9857
▁Гризодубов	-11.9857
▁Оршанский	-11.9861
▁Плато	-11.9863
▁Карякин	-11.9872
ольц	-11.9874
динская	-11.9875
▁Меленк	-11.9877
▁Стасов	-11.9879
▁Балаклав	-11.9879
▁Кошурников	-11.9879
▁Баррикадная	-11.9882
яжский	-11.9884
▁Шот	-11.9888
▁Драгун	-11.989
▁Шинников	-11.9891
▁Хот	-11.9894
▁Знамя	-11.9902
▁Брейтов	-11.9902
Жирковский	-11.9903
▁Ладога	-11.9904
▁Старок	-11.9906
▁СОТ	-11.9918
▁Народный	-11.9924
▁Шаранг	-11.9926
▁Каракулин	-11.9929
▁Яранск	-11.9934
чина	-11.9934
▁Лешуконск	-11.9935
▁Ползунов	-11.9935
▁Тихонова	-11.9936
мель	-11.9946
▁Большесельск	-11.9947
▁431	-11.9954
одар	-11.9955
▁Кардымов	-11.9958
▁Ордин	-11.996
▁Пок	-11.9962
▁Хорош	-11.9967
▁Ильюшин	-11.9969
▁Килемар	-11.9969
▁Кыштов	-11.9969
▁Индустри	-11.997
▁НСТ	-11.9971
▁Специалистов	-11.9981
▁Клименко	-11.9983
▁Зин	-11.9987
▁Новотор	-11.9988
▁Прудная	-11.9996
▁Оло	-11.9997
▁Тепличный	-12.0003
▁Дежнев	-12.0003
▁Арбузова	-12.0004
▁Олонец	-12.0005
▁Бахчисарай	-12.0008
▁Мелик	-12.0011
▁438	-12.0014
▁Высокий	-12.0015
▁Ухолов	-12.0015
▁Широкий	-12.0016
▁Грачевка	-12.0021
дей	-12.0024
юково	-12.0024
▁Шарыповский	-12.0026
Ситников	-12.0028
асенко	-12.0029
Толстовский	-12.0036
▁Филатова	-12.0037
▁Новопетров	-12.0038
▁ТЭЦ	-12.0038
▁Усадьба	-12.0038
▁Юннат	-12.0038
▁Старокул	-12.0039
▁Тырныауз	-12.0049
▁Гремячинск	-12.0049
▁Клубничная	-12.006
▁Алькеев	-12.0066
▁Сентябр	-12.0072
▁Чалтыр	-12.0072
кетский	-12.0072
▁Новосел	-12.0073
агир	-12.0076
/45	-12.0078
▁Андреаполь	-12.0083
▁Июльск	-12.0083
▁Добрин	-12.0085
▁Вострецов	-12.0095
▁Питерский	-12.0095
▁Юрюзань	-12.0095
▁Социалистическ	-12.0096
▁Афанасьевский	-12.0101
▁Снежин	-12.0106
▁Коровинское	-12.0106
▁Моисеев	-12.0106
▁Кикнур	-12.0106
▁Мишкино	-12.0108
Пол	-12.011
▁Бек	-12.0112
▁Омутинский	-12.0113
▁Болшев	-12.0114
▁Бутырки	-12.0118
▁Пестеля	-12.0118
▁Михайлово	-12.0125
лаева	-12.0129
▁Лескен	-12.0129
▁Рахова	-12.0134
▁Оленин	-12.0135
рудящихся	-12.0141
▁Ермолаев	-12.0141
▁Чегем	-12.0146
▁Ельцов	-12.0152
▁Батыр	-12.0153
▁рабочих	-12.0164
▁Харабали	-12.0174
▁Ван	-12.0179
хун	-12.018
▁Бикба	-12.0186
▁Чучков	-12.0187
▁Новотроицкое	-12.0191
▁Билимба	-12.0199
▁Газопровод	-12.0199
▁Наволок	-12.0199
▁Сед	-12.0199
▁Кузнецов	-12.02
31	-12.0208
▁Карабанов	-12.0211
сара	-12.0215
▁Ключевский	-12.0227
▁Речник	-12.0227
▁Матроса	-12.0229
▁Уч	-12.024
ьковский	-12.0242
▁Константиновка	-12.0243
▁Сколковск	-12.0245
▁Чесменский	-12.0245
тьево	-12.0247
▁Свято	-12.0251
ганово	-12.0254
▁Конё	-12.0254
▁Волчанск	-12.0256
▁Цемдолин	-12.0257
Энгельса	-12.0258
ерамика	-12.0261
бекова	-12.0265
▁Кременчугск	-12.0268
▁Боголюбов	-12.0268
▁Баязит	-12.0268
оллективный	-12.0277
▁Нязепетровск	-12.0278
▁Прокатная	-12.028
▁442	-12.028
▁Новосель	-12.0286
▁Сосново	-12.0287
▁Красноармейское	-12.0288
▁Вильямс	-12.0292
▁Мысхак	-12.0292
▁Ванеев	-12.0294
▁Степан	-12.0295
▁Ук	-12.0295
▁Болотная	-12.0295
▁434	-12.0299
▁Вилегодск	-12.0303
▁Меж	-12.0307
▁Куж	-12.0312
▁Зеленчукск	-12.0313
▁Бердюж	-12.0315
▁Чисты	-12.0319
▁Полякова	-12.032
▁Мячков	-12.0327
▁Агрономическая	-12.0327
▁Пеше	-12.0327
▁Киевское	-12.0328
▁Никонов	-12.0339
кевича	-12.0346
▁Пушкарская	-12.0347
▁Мех	-12.0353
▁Опоч	-12.0356
Осипов	-12.0357
▁Сухая	-12.0362
▁Лада	-12.0363
▁Синявин	-12.0363
▁Яхт	-12.0364
▁Шер	-12.0367
▁Шексн	-12.0368
▁Чарышск	-12.0368
▁Августа	-12.0374
▁Лун	-12.0382
▁Ялуторовский	-12.0384
▁Экспериментальн	-12.0386
▁дома	-12.0389
Илецк	-12.039
ДТ	-12.0392
▁Одесский	-12.0396
▁Шелаболих	-12.0398
▁Варнавин	-12.0398
▁Бобровка	-12.0398
/34	-12.0406
▁Лаврентьев	-12.0409
▁Союз	-12.0412
▁Марха	-12.0413
▁Никулин	-12.0414
▁Астрах	-12.0414
▁Рем	-12.0418
Нижнедевицкий	-12.0421
▁Эльтонская	-12.0421
▁Коптев	-12.0424
▁Струнин	-12.0426
▁Грязовец	-12.0427
▁Вавожский	-12.0429
ужский	-12.0429
▁Головин	-12.0434
▁Хвалынский	-12.0442
▁437	-12.0444
▁Даурская	-12.0445
▁Михайлов	-12.0456
▁Делегатск	-12.0457
▁Малышев	-12.0457
▁Серебрян	-12.0458
▁Лазовский	-12.0458
▁Богатыр	-12.0461
яльский	-12.0464
▁Красночикойский	-12.0469
▁Новоорск	-12.047
алыклинск	-12.0471
колово	-12.0479
▁Севский	-12.0481
▁Фабричный	-12.0481
▁Юбилейное	-12.0481
▁Очаковская	-12.0481
▁Федосеева	-12.0482
▁Залегощенск	-12.0491
▁Паровозн	-12.0493
▁Динамов	-12.0494
▁Екатерининская	-12.0495
линг	-12.0498
▁Короб	-12.0499
▁Шад	-12.0504
▁Унцукуль	-12.0505
0	-12.0508
▁Одоевский	-12.051
▁Глушко	-12.0511
▁Чапаевская	-12.0515
▁ПГСК	-12.0517
▁Старокуб	-12.0517
▁Малыгин	-12.0517
▁Кесов	-12.0518
Туринский	-12.0519
еглов	-12.0524
аткинский	-12.0526
▁Зейский	-12.0526
▁Тимофеев	-12.0526
▁Плотников	-12.0527
▁Нариманов	-12.0528
▁Мошенско	-12.0529
▁Столетов	-12.0529
▁Сонков	-12.0529
▁Фиров	-12.0534
▁Беляков	-12.0535
▁Очер	-12.0537
▁Чиг	-12.0538
▁Ремонтн	-12.054
▁Гусиноозерск	-12.0541
▁Перевертк	-12.0541
▁Пап	-12.0542
▁Приморск	-12.0547
▁Марьянов	-12.055
▁Кудрявцева	-12.0553
▁Цветной	-12.0554
▁Косая	-12.0557
▁Нейский	-12.0558
▁Булатников	-12.0565
▁Коновалов	-12.0565
▁Тев	-12.0565
▁Бет	-12.0566
▁Аткарский	-12.0567
цино	-12.0572
▁Ардон	-12.0574
▁Привольн	-12.0576
▁Балейский	-12.0577
▁Алферов	-12.0589
строевская	-12.059
Жукова	-12.0592
▁Защитников	-12.0601
▁Синегор	-12.0602
▁Виноградова	-12.0613
▁Хвастович	-12.0613
▁Смольная	-12.0616
▁Февральск	-12.062
▁Рай	-12.0621
▁Вилюйск	-12.0624
▁Грушев	-12.0624
▁Загреб	-12.0625
▁Бояр	-12.0625
▁Саввино	-12.0626
рюк	-12.0626
▁Крылатски	-12.0626
Алданский	-12.0628
42	-12.0629
▁Каляев	-12.0635
▁Барнаульск	-12.0646
▁Ахмат	-12.0649
Казмаляр	-12.0649
центр	-12.0649
▁Заполярн	-12.0649
▁Заветн	-12.065
▁Вадим	-12.0651
▁Грузинская	-12.0651
▁Сеченов	-12.0658
▁Знаменская	-12.0658
▁Григор	-12.0661
▁Скандинав	-12.0661
▁Авиагородок	-12.0662
хтинский	-12.0663
дива	-12.0663
▁Сабурово	-12.0665
▁Оптик	-12.0665
▁Полу	-12.0672
▁Редк	-12.0673
▁Доволенск	-12.0673
▁Рыбацкий	-12.0683
хинская	-12.0685
▁Батецкий	-12.0686
▁Чел	-12.0692
▁Борцов	-12.0694
▁Боковский	-12.0696
▁Юмашев	-12.0698
лом	-12.0706
▁Крутинский	-12.0709
/42	-12.071
▁Керченск	-12.071
чкино	-12.0711
▁Зимовник	-12.0721
▁Межгорье	-12.0722
▁Кесаев	-12.0722
йчук	-12.0723
▁Тих	-12.0726
▁Осиново	-12.0728
еден	-12.0733
▁Россошанск	-12.0735
дыр	-12.0739
▁439	-12.0741
Медиков	-12.0741
▁Вавилов	-12.0742
▁Гран	-12.0747
▁Гостага	-12.0747
окша	-12.075
ушки	-12.0751
▁Холмогорская	-12.0755
▁Верхнеднепровск	-12.0759
▁Скульптор	-12.0759
▁Колпаков	-12.0759
▁Полесский	-12.0765
▁Адыгейск	-12.0765
▁Макарово	-12.0769
▁Граничн	-12.0771
▁Тополев	-12.0774
товского	-12.0777
▁Гончар	-12.0781
▁Пра	-12.0781
▁Пойма	-12.0783
▁Стрелецко	-12.0784
▁Краснобродск	-12.0784
▁Красненский	-12.0786
-15,	-12.0791
▁Майма	-12.0791
▁Автозаводский	-12.0793
▁Калмыкова	-12.0796
▁Терней	-12.0796
▁447	-12.0802
▁Марково	-12.0806
▁Василис	-12.0808
▁Учхоз	-12.0808
Моравск	-12.0811
дыш	-12.0813
▁Лукинская	-12.0815
▁Ляпи	-12.0827
▁Кислов	-12.0829
▁Обоян	-12.083
▁Яшкуль	-12.0833
▁Буланаш	-12.0833
▁Пожарн	-12.0834
▁Баран	-12.0835
Желез	-12.0841
Гайский	-12.0841
▁Вадинск	-12.0843
▁отделени	-12.0843
▁Турочакский	-12.0843
Индустр	-12.0845
▁Сафонова	-12.0845
▁Языков	-12.0845
хове	-12.0846
▁Угранск	-12.0849
▁Трудовы	-12.0852
▁Приволж	-12.0857
▁индивидуальн	-12.0857
▁Марков	-12.0864
▁Балтай	-12.0869
▁Таштып	-12.087
▁Чертково	-12.087
▁Марусин	-12.087
▁Блок	-12.087
▁Сенной	-12.0871
▁Лебяжьевск	-12.0871
▁Убинский	-12.0876
▁Хиславич	-12.0882
▁Серегин	-12.0882
▁445	-12.0903
▁Никифоров	-12.0905
▁Мама	-12.0908
▁Киясов	-12.0908
▁Руб	-12.0913
▁Псы	-12.0917
▁Кувыкина	-12.092
▁Шовгенов	-12.092
анцев	-12.0925
▁Павлоградский	-12.0932
▁Муезерский	-12.0932
▁Невельск	-12.0933
▁Дубовая	-12.0935
▁Большевик	-12.0939
▁446	-12.0942
▁Заповедная	-12.0945
▁Федоровское	-12.0945
▁Красноборск	-12.0946
▁Друж	-12.0953
риева	-12.0955
▁Крюков	-12.0956
▁Лац	-12.0957
▁Сусуман	-12.0957
▁Ремонтненский	-12.0958
▁Кедр	-12.0969
шенко	-12.0969
▁Английск	-12.097
▁Овчинников	-12.097
▁Болдин	-12.0973
89	-12.0976
▁Эге	-12.0976
▁Паши	-12.0978
▁Чернышев	-12.098
▁Ельниковский	-12.0982
▁Чертаново	-12.0982
▁Пред	-12.0982
▁Куюк	-12.0983
▁Безымянная	-12.0983
апова	-12.0985
▁Минино	-12.0989
тау	-12.0996
▁Швер	-12.0998
▁Озерное	-12.0999
▁Металлист	-12.1004
▁Солонц	-12.1007
ксплуатаци	-12.1007
▁Пижан	-12.1008
▁Милютинский	-12.1008
/41	-12.101
▁Трех	-12.1013
▁Герасименко	-12.102
▁Сампур	-12.1021
Дарасун	-12.1032
Румянцева	-12.1032
▁Гаджиева	-12.1032
▁Черный	-12.1033
▁Алексеевское	-12.1035
Западный	-12.1039
▁Кривой	-12.1042
▁Молодежи	-12.1045
▁Соловьиная	-12.1045
▁Кайбицк	-12.1045
гуш	-12.1056
▁Липки	-12.1057
▁Баргузинский	-12.1058
Карам	-12.1058
▁450	-12.1062
▁Геолог	-12.1062
▁Михалево	-12.1066
▁Зональная	-12.1067
▁Кочев	-12.107
▁Фабриц	-12.107
▁Сергокалинский	-12.1071
▁Сухов	-12.1077
▁Камешков	-12.1082
▁Кушел	-12.1083
▁Аделя	-12.1083
▁Сапожковский	-12.1083
▁Новоселье	-12.1088
▁Академ	-12.1093
▁Новосадов	-12.1096
▁Бакунин	-12.1096
▁Лебед	-12.1099
цкая	-12.1102
▁Изюмск	-12.1108
▁Лиховской	-12.1121
▁Дорохов	-12.1121
▁Заки	-12.1124
вел	-12.1126
▁Вербн	-12.1128
дах	-12.1128
▁Онуфриев	-12.1134
▁Филимонк	-12.1134
▁магистраль	-12.1134
▁КИМ	-12.1134
▁Переяслав	-12.1134
▁Рау	-12.1135
▁Серебрянка	-12.1137
▁Казак	-12.114
Тукая	-12.114
▁Никулино	-12.1141
▁Новобурасский	-12.1146
▁Янтарная	-12.1146
▁Беляевский	-12.1155
▁Курганная	-12.1159
▁Натальи	-12.1159
▁Болгар	-12.116
▁Елькин	-12.116
▁Дружный	-12.1161
▁Дубровин	-12.1164
▁Булгаково	-12.1169
▁Архаринский	-12.1174
стровский	-12.1175
▁Минина	-12.118
▁Нововатутинск	-12.1185
▁Верховье	-12.1185
▁Чегдомын	-12.1185
▁Курсантов	-12.1186
▁Мухин	-12.1187
▁Самаркандский	-12.1194
▁Бород	-12.1198
▁Кондратов	-12.1199
▁Мышкинский	-12.1199
▁Набережн	-12.1202
ербин	-12.1204
▁Белоусово	-12.1207
▁Звериноголовск	-12.121
▁Яцков	-12.1211
▁Чусов	-12.1215
сола	-12.1217
▁Якова	-12.1221
Коксинский	-12.1223
▁Старица	-12.1224
Кубинский	-12.1233
▁Кытманов	-12.1236
▁Удельная	-12.1236
▁Детский	-12.1237
▁Титов	-12.1243
▁Зилаирский	-12.1244
▁Дур	-12.1246
▁Актюбинск	-12.1249
Горбунова	-12.1249
▁Черемшан	-12.1258
▁Мосрентген	-12.1262
▁писател	-12.1262
▁Свет	-12.1263
Биби	-12.1263
▁Трубчевск	-12.1263
▁Сорокино	-12.1265
▁Камская	-12.1267
▁Локот	-12.1275
▁Проезжая	-12.1275
▁Снежногорск	-12.1275
▁Орехов	-12.128
▁Тымовский	-12.1282
▁Ситн	-12.1284
▁Атаманов	-12.1285
▁Жигалов	-12.1288
▁Арти	-12.129
▁Судог	-12.1292
▁Панино	-12.1294
арин	-12.1305
▁Черок	-12.1309
▁Смолен	-12.1319
▁Баян	-12.1322
▁Сычевский	-12.1327
▁Луганская	-12.1328
Балканская	-12.1331
▁Инсарский	-12.1335
очкина	-12.1337
▁Родничок	-12.134
▁Полковник	-12.134
▁Обухов	-12.1343
▁Вокзальный	-12.1353
▁Глубокий	-12.1353
▁Стойкост	-12.1353
▁Заслон	-12.1353
Колодезь	-12.1357
▁Солдатская	-12.1366
▁Лопатинский	-12.1367
▁Заволжск	-12.1368
▁Лен	-12.1368
▁Тин	-12.1373
▁Верхн	-12.1377
▁Раздольн	-12.1378
▁Ивушка	-12.1379
▁Притобольн	-12.1379
▁Духов	-12.1381
▁Столбовая	-12.1389
▁Ахтуб	-12.139
▁Механическ	-12.1392
▁Перспективная	-12.1392
▁Межев	-12.1398
▁Ахтынский	-12.1405
▁Харьков	-12.1405
▁466	-12.141
▁Краснозаводск	-12.1413
Прибо	-12.1416
Гамар	-12.1416
▁Шмаков	-12.1418
▁Грушевая	-12.1419
▁Станке	-12.1419
▁Капустин	-12.1431
▁Скрябин	-12.1431
▁Лебедев	-12.1432
▁Связи	-12.1433
тдинова	-12.1434
▁Пригородное	-12.1434
▁Сева	-12.1435
▁Улу	-12.1445
▁Болотно	-12.1446
▁Парусн	-12.1455
▁Развилк	-12.1457
▁Хрущев	-12.1457
▁Верхошижем	-12.1457
вальд	-12.1458
▁Новодугин	-12.147
▁Флот	-12.148
▁Пограничник	-12.1483
▁Нанайск	-12.1484
▁Астан	-12.1484
▁Авангард	-12.1486
▁Кигинск	-12.1496
▁Будён	-12.1497
Тарк	-12.1504
▁Злынковск	-12.1507
▁Арс	-12.1507
▁Урень	-12.1509
▁Никель	-12.151
▁457	-12.1512
▁Кирс	-12.1512
▁Промышленно	-12.1517
пнянский	-12.1519
Комсомолец	-12.1521
▁Верея	-12.1523
деево	-12.1525
ербаков	-12.1532
▁Полазн	-12.1536
▁Вяземская	-12.1537
▁Уш	-12.1539
▁Улуг	-12.154
▁Кочков	-12.1542
/39	-12.1546
▁Фрунзенская	-12.1549
▁Пастернака	-12.155
▁Селенгинск	-12.1552
▁Незлобн	-12.1563
▁Колыван	-12.1564
▁Соколино	-12.1565
▁Обливский	-12.1568
▁Серебряков	-12.1576
▁Жма	-12.1586
▁Гороховец	-12.1588
▁Неп	-12.1589
▁Труфанов	-12.159
▁Частинск	-12.159
▁Батумск	-12.159
▁Долинск	-12.1593
айлово	-12.1595
▁Сабан	-12.1598
▁Ильинская	-12.1601
▁Марины	-12.1602
▁Такташ	-12.1607
▁Саки	-12.1608
▁Судиславский	-12.1608
▁Образцово	-12.1616
▁Новосеме	-12.1616
▁Рож	-12.1617
▁Ким	-12.1621
▁Мяго	-12.1622
▁Соснов	-12.1622
▁Лукина	-12.1626
▁Сходненск	-12.1628
▁Захарово	-12.1632
▁Хвалынск	-12.1633
▁Алхан	-12.1639
▁Гоголев	-12.1643
▁Ларина	-12.1643
▁Масловка	-12.1643
▁Колобов	-12.1646
▁Зейск	-12.1649
▁Уф	-12.165
▁Угрешск	-12.1656
▁Высоково	-12.1657
▁Заовражная	-12.1657
▁Лежен	-12.166
▁Адри	-12.1662
▁Буян	-12.1662
гутово	-12.1663
▁Погорелов	-12.1666
▁Лак	-12.1667
▁Мелихов	-12.167
▁Садов	-12.1671
▁Муромцево	-12.1674
бокс	-12.1686
Ленский	-12.1687
▁Стрельников	-12.1691
▁Нефтян	-12.1696
Хетагуров	-12.1697
▁Алексеево	-12.1697
▁Параллель	-12.1697
▁Казахск	-12.1697
▁Мирно	-12.1697
▁Маслова	-12.1698
▁Новоспасск	-12.17
▁Джалиль	-12.1724
▁Сясь	-12.1724
▁остров	-12.1724
Сюмсинский	-12.1725
▁Станица	-12.1725
▁Нос	-12.1727
оморцев	-12.173
▁Паново	-12.1736
осяна	-12.1737
▁Вычегодск	-12.1737
▁Черекский	-12.1737
▁Волково	-12.1746
Баргузин	-12.175
▁Сони	-12.1752
▁Базовская	-12.1754
▁Шигал	-12.1756
▁Теньгушев	-12.1764
▁Исетск	-12.1769
Красн	-12.1772
▁Дро	-12.1773
Эр	-12.1774
▁Кижеватов	-12.1778
▁Псебай	-12.1778
▁Погост	-12.1778
теменко	-12.1787
▁Константиново	-12.1788
▁Буммашев	-12.1791
▁Светогорск	-12.1792
▁Автозавод	-12.1792
▁Лаптев	-12.1792
▁Сокольники	-12.1805
▁Выгонная	-12.1806
▁Яблочн	-12.1819
▁Вишнёвая	-12.1819
▁Ельня	-12.1819
▁Пересвет	-12.1819
нко	-12.1819
▁Андреевская	-12.1819
▁Березник	-12.183
▁Владислав	-12.1832
▁Парабельский	-12.184
▁Спировский	-12.1846
▁флот	-12.1846
▁Заимка	-12.1846
▁Насыр	-12.1847
▁Онгудайский	-12.1853
▁Федосе	-12.1858
▁Круглое	-12.186
▁Тес	-12.1869
▁Мамонтово	-12.1871
▁Холмогоров	-12.1875
▁Ильин	-12.188
▁Шатров	-12.1884
▁Скоро	-12.1885
▁Джи	-12.1896
ПК	-12.1897
▁Каменная	-12.1897
▁489	-12.1901
▁Казанка	-12.1909
▁Учител	-12.1909
▁Каландар	-12.1914
МОП	-12.1915
▁Волгин	-12.1918
▁Новопавлов	-12.1928
▁Товарищеский	-12.1931
▁Кирпично	-12.1935
▁Корсун	-12.1935
▁Серышев	-12.1939
▁Каменоломн	-12.1942
▁Солигалич	-12.1942
▁Зареченск	-12.1945
▁Анисимов	-12.1956
▁Ногина	-12.1956
▁Русаков	-12.1956
▁бригад	-12.1956
▁Вершинин	-12.196
▁Пригород	-12.1963
▁Калараш	-12.197
▁Виноградный	-12.1975
▁Дивное	-12.1984
▁Червишев	-12.1984
Молоковский	-12.1984
▁Гладкова	-12.1985
▁Самойлов	-12.1987
▁449	-12.199
▁456	-12.1994
▁Киргиз	-12.1997
Хемчикский	-12.1997
▁Хлебников	-12.2
▁Доброе	-12.2001
ютина	-12.2005
▁Кильмезский	-12.2011
▁Степновский	-12.2011
▁Улица	-12.2013
▁Алга	-12.2019
▁Покровск	-12.2022
▁Белозерн	-12.2023
▁Навл	-12.2023
▁Бачатск	-12.2025
▁Варениковск	-12.2025
▁Врангел	-12.2025
▁Джубга	-12.2025
▁Салаир	-12.2025
▁Став	-12.2026
▁Кленовый	-12.2027
▁Возрождение	-12.2028
▁Четаев	-12.203
Печорский	-12.203
▁Пластун	-12.2033
▁Механизатор	-12.2035
▁Селиван	-12.2038
▁Красногор	-12.2039
▁Грамотеин	-12.2039
▁Теучеж	-12.2039
▁Кузьмолов	-12.2039
▁Кадый	-12.2041
МЗ	-12.2042
▁Холод	-12.2053
▁Яхрома	-12.2053
Кюе	-12.2061
▁Вертолетная	-12.2067
городняя	-12.2072
ойковский	-12.2072
▁Дунаевского	-12.2073
▁Халтурин	-12.2075
▁Курья	-12.2075
▁470	-12.2079
▁Лучистая	-12.2081
▁Вильг	-12.2088
▁Машинист	-12.2095
▁Вахрушев	-12.2101
▁Еманжелин	-12.2108
▁Кологрив	-12.2109
▁Поназырев	-12.2109
▁Сорск	-12.2116
▁Степ	-12.2118
▁Элеватор	-12.2121
тавина	-12.2123
ПГК	-12.2136
▁Барамзиной	-12.2137
▁Ручейная	-12.214
ловский	-12.214
▁Солдатов	-12.2141
▁Сурова	-12.2141
▁Аннен	-12.215
▁Пальмир	-12.2151
▁Знаменского	-12.2152
▁Печ	-12.216
▁Кавалерийск	-12.2161
▁Савин	-12.2161
▁Троллейн	-12.218
▁Мурашинский	-12.218
▁Лухма	-12.218
▁Немчинов	-12.218
▁458	-12.2185
▁Светлое	-12.2188
▁Хлебороб	-12.2194
▁Износков	-12.2194
▁Дружинин	-12.2194
▁Гаражи	-12.2196
▁Майор	-12.22
ихинское	-12.2201
▁Семеновское	-12.2203
▁Промыслов	-12.2208
▁Борок	-12.2211
▁Казинк	-12.2218
родром	-12.222
утово	-12.222
жина	-12.2221
▁Дьяконова	-12.2222
▁Зари	-12.2225
Февральская	-12.2228
▁Алиева	-12.2228
Нурадилова	-12.2236
игровский	-12.2236
Хабль	-12.2236
▁Загорьевск	-12.2237
▁Лобаново	-12.2237
▁Вилис	-12.2238
▁Фонтанная	-12.224
▁Болхов	-12.2241
▁Лаз	-12.2247
▁Самп	-12.2247
▁Ворсино	-12.225
▁Каслинская	-12.2251
▁Бри	-12.2253
▁Атаман	-12.2254
▁Гареев	-12.2259
гуй	-12.2261
▁Угол	-12.2262
▁Бирюч	-12.2263
▁Шаблыкин	-12.2265
▁Лихославль	-12.227
▁Ших	-12.227
▁460	-12.2273
▁Шахтерск	-12.2279
Гаванский	-12.2279
▁Бакланов	-12.2279
дем	-12.2281
дык	-12.2282
ности	-12.2283
▁Дико	-12.229
▁Геологоразвед	-12.2293
▁Армейская	-12.2293
▁Турковский	-12.2296
▁Армизонск	-12.2308
▁Мете	-12.2308
▁Медицинская	-12.2322
▁Бачурин	-12.2322
▁Городецк	-12.2323
абеева	-12.2323
▁Мамонов	-12.233
▁Таман	-12.2335
утино	-12.2336
▁Нефтехимик	-12.2336
▁Залесье	-12.2336
Пристанский	-12.2336
▁Курагин	-12.2338
Абакан	-12.2342
▁Володи	-12.235
▁Молдавская	-12.2351
▁Чукотская	-12.2351
ПСС	-12.2351
▁Губина	-12.2354
▁Ракитно	-12.2362
▁Шатур	-12.2364
под	-12.2364
▁Коммунальник	-12.2365
▁Арбаж	-12.2365
▁Бабич	-12.2367
Канский	-12.237
олдинский	-12.237
▁Кожуховская	-12.2379
▁Тюхтет	-12.2379
Попова	-12.238
▁Усова	-12.2383
▁Кубань	-12.2385
▁Торопец	-12.2394
▁Вересаев	-12.2394
▁карьер	-12.2394
▁промышленный	-12.2394
▁Медовая	-12.2395
▁Берд	-12.2407
▁Дежнёв	-12.2408
▁Запрудня	-12.2408
▁Юкаменск	-12.2408
▁Черемухов	-12.2423
▁Куньинский	-12.2423
▁Паш	-12.2424
▁Мыза	-12.2437
▁Решет	-12.244
▁Левокум	-12.2443
▁Анадыр	-12.2443
▁Кооператив	-12.2448
ианки	-12.2451
▁Симбир	-12.2452
▁Сылва	-12.2452
▁Весн	-12.2453
▁Волч	-12.2461
▁Франко	-12.2464
▁Гряз	-12.2467
▁Сосновское	-12.2472
СТ	-12.2477
Ордж	-12.2477
▁Леонид	-12.2481
▁Приветн	-12.2481
▁Ракетн	-12.2482
▁Дьяков	-12.2482
▁Рыль	-12.2484
▁Молодежн	-12.2488
▁Красноб	-12.2492
▁Девят	-12.2494
▁Нерль	-12.2495
▁Котельникова	-12.2497
▁Дрез	-12.2498
▁Першин	-12.25
▁Плавск	-12.2503
▁Анти	-12.2507
▁Скворцов	-12.251
▁Краснопахорское	-12.251
▁Обводно	-12.251
▁Ткачева	-12.2512
▁Куликово	-12.2516
▁Новобур	-12.2518
никольск	-12.2522
▁Ландышев	-12.2525
улево	-12.2527
▁Новомарьинск	-12.2539
▁СОНТ	-12.2539
▁Немецк	-12.254
▁Песочный	-12.2546
▁Дианов	-12.255
убова	-12.2552
▁усадьба	-12.2554
▁Коваленко	-12.2554
порт	-12.2557
▁Шелков	-12.2562
▁Кугеси	-12.2569
▁Образцова	-12.2569
▁Приютн	-12.2569
рез	-12.2574
▁Холун	-12.2576
▁Залесовский	-12.2583
▁Граф	-12.2584
▁Ольги	-12.2584
▁Панков	-12.2584
▁Мартынова	-12.2586
▁Дачное	-12.2586
▁Пчел	-12.2587
оци	-12.2592
▁Вишняков	-12.2598
▁Ереванск	-12.2598
Громовой	-12.26
Октябрь	-12.26
▁Колодезн	-12.26
ксин	-12.2606
▁Бугор	-12.2607
▁Плес	-12.2608
идова	-12.2612
едр	-12.2616
▁Черемшанская	-12.2617
▁Анциферов	-12.2628
▁Клязьма	-12.2628
▁Брагин	-12.263
▁Койгород	-12.2633
▁Ишеев	-12.2634
▁Володарск	-12.2634
▁Дорогобуж	-12.2635
▁Анастасиев	-12.2642
▁Арсенальн	-12.2642
▁Жиздринск	-12.2645
▁Земляч	-12.2657
утина	-12.2659
▁Загорян	-12.2662
▁Муранов	-12.2664
▁Углегорск	-12.2665
повское	-12.2667
▁Цементник	-12.2672
▁Нукут	-12.2672
▁Жигул	-12.2675
▁Афонин	-12.2678
▁Добровольческ	-12.2679
▁Катайск	-12.2679
▁Салманов	-12.2685
▁Гром	-12.2687
▁Мухино	-12.2696
▁Куников	-12.2702
▁Грязнов	-12.2703
Бедного	-12.2704
▁Ударн	-12.2707
▁Лаврова	-12.2715
▁Боб	-12.2716
▁Горняцкая	-12.2717
▁Хомут	-12.2728
▁Космодемьянск	-12.2728
ухово	-12.2739
шкин	-12.274
огатырская	-12.2743
▁Безымен	-12.2747
▁Дзержинец	-12.2747
Донская	-12.2749
▁Антоновка	-12.2758
▁Цумадинск	-12.2762
▁Хотынец	-12.2762
▁Кром	-12.2763
▁Балтик	-12.2766
▁Кольцов	-12.2775
очелн	-12.2782
▁Лебедин	-12.2786
▁Калуж	-12.2789
▁Дерев	-12.2789
Сайдаш	-12.2791
▁Мартьянов	-12.2792
▁Забалу	-12.2792
▁Грахов	-12.2792
▁Соколовская	-12.2796
▁Журавли	-12.28
▁Барятин	-12.2802
▁Шаманов	-12.2803
▁Лётн	-12.2804
▁Калибровщик	-12.2807
▁Таттинск	-12.2808
▁Неклюдово	-12.2815
изков	-12.282
▁Гигант	-12.2822
▁Новоалексеев	-12.2822
▁Межозерн	-12.2822
▁Волотов	-12.2822
▁Ярыгин	-12.2823
▁Ногир	-12.2837
▁Закаменск	-12.2845
▁Соборная	-12.2847
▁Чапур	-12.2852
▁Новодеревен	-12.2852
▁Рощи	-12.2865
▁Устюж	-12.2866
коммунальная	-12.2867
▁Криуша	-12.2867
▁Новичих	-12.2867
▁Шпа	-12.2867
▁Подстеп	-12.287
тамак	-12.2874
▁Мусин	-12.2878
▁Игрим	-12.2882
▁Голландск	-12.2882
▁Родниковская	-12.2886
▁Дю	-12.2888
▁Филимонов	-12.2897
арейки	-12.2905
▁Автогаражн	-12.2912
▁Дарвина	-12.2912
▁партизан	-12.2912
▁Васильевское	-12.2912
▁Лоух	-12.2913
▁Чернав	-12.2916
▁Казачий	-12.2928
▁Курумкан	-12.2928
▁Мухач	-12.2931
гуль	-12.2932
▁Ручей	-12.294
▁Юрлов	-12.2943
▁Талалихин	-12.2943
▁Туфана	-12.2943
▁Рябиновый	-12.2948
▁Иги	-12.2948
▁Вязем	-12.2952
▁Темкин	-12.2952
▁Витебская	-12.2958
▁Саларьев	-12.2958
▁Добровольцев	-12.2961
Невского	-12.2962
торф	-12.2963
▁Логинов	-12.2966
▁Оршан	-12.2969
▁Павловское	-12.297
▁Оранжерейная	-12.2973
▁Центральное	-12.2973
▁Изыскател	-12.2973
▁Рамонь	-12.2973
▁Елан	-12.2976
дагулово	-12.2977
▁Шарап	-12.2978
зма	-12.2988
▁Пришвин	-12.2989
▁Радиальная	-12.2989
▁Маков	-12.2995
▁Дву	-12.3002
Летчиков	-12.3003
▁Скобелевск	-12.3004
▁Шелепихинск	-12.3004
▁Атнинск	-12.3005
▁Серг	-12.301
▁Воротынск	-12.3013
▁Гон	-12.3017
▁Нариман	-12.3017
▁Смышляев	-12.302
охомский	-12.302
▁Мясн	-12.303
▁Глаз	-12.3033
▁Акбулак	-12.3045
юган	-12.3046
▁Тазовский	-12.3051
▁Иссин	-12.3052
▁Котель	-12.3059
▁Богучар	-12.306
▁Мокшан	-12.306
▁Карагай	-12.306
цкий	-12.3066
▁Заозерье	-12.3066
▁Согласи	-12.3066
▁Спуск	-12.3066
▁Чистое	-12.3067
▁Продольная	-12.3081
▁Пискунов	-12.3081
▁Моторная	-12.3084
▁Дно	-12.3085
титаровск	-12.3095
сосновский	-12.3097
▁Приозерный	-12.3097
▁Сивков	-12.3098
▁Фрол	-12.3102
▁Торбеев	-12.3107
▁Нижн	-12.3109
тьева	-12.311
▁Санаторий	-12.3112
▁Зарека	-12.3112
▁Соп	-12.3116
болот	-12.3117
ганова	-12.3118
ушево	-12.312
▁Худ	-12.3121
▁Новогиреев	-12.3128
▁Привокзальный	-12.3128
▁Автогородок	-12.3129
▁Лугов	-12.3139
▁Семчин	-12.3139
▁Карач	-12.314
▁Зарубино	-12.3143
▁Сплав	-12.3143
▁Заверт	-12.3143
▁Кодинск	-12.3143
▁Родон	-12.3146
шевка	-12.315
речье	-12.315
▁Новоугл	-12.3151
солдатский	-12.3159
▁МОПР	-12.3159
Холь	-12.3159
▁поля	-12.3164
▁Рогожников	-12.317
▁Танк	-12.3171
▁Могоч	-12.3171
▁Нази	-12.3172
▁Фронтов	-12.3174
▁Анджиевск	-12.3175
▁Михеев	-12.3175
▁Крайн	-12.3177
▁Куед	-12.3182
▁Ратн	-12.3183
▁Мазанов	-12.3187
инские	-12.3188
▁Сливов	-12.319
▁Петренко	-12.3194
▁Ливен	-12.3201
▁Ворсм	-12.3206
▁Предпортов	-12.3206
▁Пилюгин	-12.3206
▁Высоковск	-12.3208
▁Пузакова	-12.3221
▁Соб	-12.3221
▁Огнев	-12.3221
▁Брусн	-12.3223
▁Мельниково	-12.3226
▁Земетчин	-12.3232
▁садовод	-12.3236
▁Мичман	-12.3237
▁Молот	-12.324
▁Раис	-12.325
осковская	-12.3251
▁Выльг	-12.3253
▁Фрезер	-12.3253
▁Бирюков	-12.3257
▁Чернышевск	-12.3257
▁Барда	-12.3265
▁Десят	-12.3269
▁Энергия	-12.3269
▁Новоникольское	-12.3269
▁Учебный	-12.3269
▁Синячих	-12.3269
▁Малос	-12.3272
/50	-12.3275
▁Лужки	-12.3276
▁Сураж	-12.328
деревянковск	-12.3283
▁Спирин	-12.3284
▁Ягодка	-12.3284
▁Меркулов	-12.3286
▁Сизова	-12.3288
Рыболов	-12.3293
▁Мясокомбинат	-12.33
▁Амгинский	-12.33
▁Ярмарочн	-12.33
▁Сулимов	-12.3302
▁Шип	-12.3312
▁Ефим	-12.3314
▁Глаголев	-12.3315
Охот	-12.3316
▁Мариупольск	-12.3316
▁Приуральский	-12.3316
▁зори	-12.3316
▁Красноусо	-12.3322
Парк	-12.3322
▁Пусто	-12.3331
▁Иловля	-12.3332
▁Овощ	-12.3332
▁Рогож	-12.3336
▁Рязан	-12.3337
▁Всеволод	-12.3348
▁Детскосельск	-12.3348
▁Фестивальный	-12.3348
▁Пилот	-12.3348
▁Тархан	-12.3348
▁Лазорев	-12.3349
▁Шафи	-12.3349
▁Хава	-12.3353
Крестьянская	-12.3354
Юлаев	-12.3355
▁Ермишин	-12.3356
▁Тен	-12.3359
▁Черлак	-12.336
▁Ботанический	-12.3379
▁Донбасск	-12.3379
▁Турке	-12.338
▁Рубежн	-12.338
▁Вайн	-12.338
Запад	-12.339
▁Карьер	-12.3391
▁Берш	-12.3395
▁Энем	-12.3396
Залки	-12.3404
Волг	-12.3411
Шерипова	-12.3411
▁Карагандинск	-12.3411
▁Хош	-12.3412
▁Казачинск	-12.3414
▁Яшкин	-12.3415
▁Аблу	-12.3417
▁Колесни	-12.3421
▁Карак	-12.3423
▁Птицефабрика	-12.3427
▁Бегичев	-12.3427
▁Кяхта	-12.3427
арбекова	-12.3429
дым	-12.3433
▁Еловский	-12.3436
жегокай	-12.3443
▁Наймушин	-12.3443
▁Кремлевская	-12.3443
▁Еремин	-12.3444
▁Чар	-12.3444
итрука	-12.3445
▁Вольное	-12.3448
▁Трифонов	-12.3459
▁Атюрьев	-12.3459
▁Троснян	-12.3476
▁Старостин	-12.3476
Цадас	-12.3476
▁Черёмушкинск	-12.348
▁Шумейк	-12.3481
▁Тюкалинск	-12.3487
Вознесенское	-12.3491
▁Свободненский	-12.3492
▁Шилк	-12.3493
▁Григорово	-12.3494
▁Первого	-12.3499
▁Воздушно	-12.3507
▁Автомобильная	-12.3508
▁Гумбетов	-12.3508
▁Тюляев	-12.3508
▁Убор	-12.3513
▁Поныров	-12.3514
▁Мурма	-12.352
▁Каргаполь	-12.3521
▁Арктическ	-12.354
▁Злобин	-12.354
▁Арбат	-12.354
▁Чередов	-12.354
▁Пиров	-12.3541
▁Черемисинов	-12.3547
остроитель	-12.3553
▁Пестрец	-12.3556
▁Еравнинский	-12.3556
укаева	-12.3566
▁Марьевка	-12.3573
▁Красив	-12.3573
▁Перелет	-12.3573
Му	-12.3586
▁Птицевод	-12.3589
▁Черкасова	-12.3589
▁Акимова	-12.359
Денисова	-12.359
▁гора	-12.3595
▁Жигу	-12.3599
чича	-12.3601
▁Снайпер	-12.3605
▁Аверьянов	-12.3605
▁Латвийск	-12.3605
▁Федоренко	-12.3606
Мал	-12.3614
▁Клочк	-12.3621
▁Павлика	-12.3621
▁Башилов	-12.3623
▁Ерзов	-12.3624
Новоорский	-12.3627
▁Марин	-12.3633
▁Абазинский	-12.3638
▁Лянгасов	-12.3638
▁Юрша	-12.3641
▁Игнатьевское	-12.3643
▁Санников	-12.3648
▁Ширяев	-12.3652
▁Новотушинск	-12.3654
Разина	-12.3662
Астраханск	-12.3663
мкр	-12.3668
▁Меч	-12.3668
▁Седин	-12.367
▁Поспелиха	-12.3671
▁Судоремонтн	-12.3671
▁Горбатк	-12.3671
▁Вашкин	-12.3674
сыз	-12.3677
/49	-12.3679
▁Кандры	-12.3687
▁Пителин	-12.3687
▁Эльба	-12.3687
▁Хрусталев	-12.3687
▁Поярков	-12.3687
▁Толстой	-12.3692
▁Шми	-12.3696
Елга	-12.37
▁Сапёрн	-12.3703
▁Пресня	-12.3703
▁Меридиан	-12.3703
▁Новослободская	-12.3703
▁Норманд	-12.3703
▁Волын	-12.3707
▁Мельничный	-12.3707
▁Медведева	-12.3707
▁Бородинский	-12.3708
▁Саян	-12.3718
▁Самолетная	-12.372
▁Платнировск	-12.3721
лица	-12.3721
▁Кожино	-12.3728
▁Шилова	-12.3733
▁Удачный	-12.3736
▁Андре	-12.3739
▁Лядова	-12.3742
▁Брат	-12.3743
▁Коренев	-12.3747
▁Завой	-12.3747
▁Танковая	-12.3754
▁Тюр	-12.3756
▁Амет	-12.3758
▁Бир	-12.3761
▁Доб	-12.3761
юзань	-12.3769
▁Улаган	-12.377
укай	-12.3775
▁Паршин	-12.3777
мбет	-12.3782
▁Ливади	-12.3786
▁Палкинский	-12.3786
▁Табун	-12.3786
овщиков	-12.3787
▁Демьянов	-12.3789
▁Селтинск	-12.3799
▁Известков	-12.3803
▁Ноградск	-12.3803
▁Цвил	-12.3803
▁Молоково	-12.3803
▁Росинка	-12.3804
Большой	-12.3812
▁Уразов	-12.3822
▁Поперечная	-12.3836
▁Пятницкая	-12.3836
▁Тюлячинск	-12.3836
▁Грайворон	-12.3839
▁Лавр	-12.3849
▁Ягоднинск	-12.3853
▁Поречье	-12.3853
▁Илек	-12.3857
бердино	-12.386
▁Прост	-12.3861
Майский	-12.3862
▁Малод	-12.3864
▁Прото	-12.3867
▁Звездочка	-12.3869
▁Поликарпова	-12.3869
▁Талнахская	-12.3869
▁Шибан	-12.387
Ярцевск	-12.3884
▁Фабрики	-12.3886
▁Трубников	-12.3886
▁Томпо	-12.3887
▁Фастов	-12.3887
▁Панкрушихинск	-12.3894
▁Миньяр	-12.3903
▁Транспортный	-12.3903
▁Брянцев	-12.3903
▁Ханто	-12.3903
север	-12.3903
▁Вытег	-12.3919
▁строительств	-12.392
▁Услон	-12.392
▁Рябинин	-12.392
▁Кузнечн	-12.3931
▁Ясн	-12.3932
▁Джамбула	-12.3937
▁Украинский	-12.3937
▁Корнеев	-12.3937
▁Дальневосточн	-12.3945
▁Костерево	-12.3953
▁Ромашково	-12.3953
▁Фрянов	-12.3954
▁Медведовск	-12.3954
▁Пронин	-12.3955
▁Спиридонов	-12.397
▁Копан	-12.398
▁Овражный	-12.3987
▁Пищевик	-12.3987
▁Усвят	-12.3987
▁Ляля	-12.3987
▁Гжатск	-12.3987
▁Артельн	-12.3988
▁Пионерный	-12.3992
▁Серафимов	-12.3993
▁КАМА	-12.4004
▁Средние	-12.4004
▁Клязьминская	-12.4004
▁Макар	-12.4021
▁Суслово	-12.4021
▁Сиз	-12.4035
▁Ближне	-12.4038
▁Курорт	-12.4044
парк	-12.4046
▁Зеленин	-12.4047
▁Студён	-12.4055
▁Подлесный	-12.4055
▁Путятинский	-12.4055
▁Габишев	-12.4055
▁Лесогорск	-12.4061
/48	-12.4067
Богандинский	-12.4072
▁Хопер	-12.4072
▁Магистральное	-12.4073
▁Плоско	-12.4083
▁План	-12.4084
▁Рязанов	-12.4085
▁Бригадная	-12.4089
▁Мебельщик	-12.4089
▁Федеративный	-12.4089
▁Каменномост	-12.4089
▁Полоцк	-12.4091
▁Проточн	-12.4098
Островского	-12.4101
ердобинск	-12.4106
Редькин	-12.4106
▁Гаджиево	-12.4106
▁Дырнос	-12.4106
▁Шипуново	-12.4107
▁Ордынск	-12.4121
▁Жарковский	-12.4124
▁Чернореч	-12.4126
▁Излучин	-12.4141
▁Силикатный	-12.4142
Талицы	-12.4151
▁Кадомцев	-12.4156
▁Тентюковск	-12.4158
▁Ржав	-12.4158
▁Шиханы	-12.4158
▁Притом	-12.416
▁Яшалтинск	-12.416
▁Юшков	-12.4168
▁Бережок	-12.4175
▁Охотнич	-12.4175
▁Баранчин	-12.4175
▁Бережк	-12.4176
▁Орбита	-12.418
▁Волков	-12.4182
▁Яст	-12.4186
польцев	-12.4188
▁Банковск	-12.4189
▁Колмогоров	-12.4193
▁Симоня	-12.4193
▁Корзун	-12.4193
▁Глухово	-12.4196
▁Студенец	-12.4206
▁Ипподром	-12.4207
▁Куратов	-12.4209
▁Пучеж	-12.421
▁Монетн	-12.421
▁Васильевская	-12.421
▁Ожерелье	-12.4227
▁Кизнер	-12.4227
▁Сычевк	-12.4227
▁Любитель	-12.4228
▁Покач	-12.4228
▁Бойко	-12.4239
▁Медынск	-12.4243
▁Нижнесор	-12.4245
▁Освобождения	-12.4245
▁Романенко	-12.4245
▁Ровное	-12.4245
▁Ургал	-12.4245
▁Новогорск	-12.4254
▁Серафим	-12.4255
▁Балей	-12.4259
▁Ремесленная	-12.4262
▁Сапроново	-12.4262
▁Тавричан	-12.4262
▁Волчиха	-12.4263
смана	-12.4265
▁Гуз	-12.4267
епкин	-12.4275
▁Черёмухов	-12.4279
▁Пошехон	-12.428
▁Аркад	-12.4297
▁Сержант	-12.4297
▁Кадошкин	-12.4297
▁Водник	-12.4297
сточная	-12.4313
▁Пахарь	-12.4314
▁Сыромолотов	-12.4314
▁Тютчева	-12.4314
Славянк	-12.4329
▁Кетченер	-12.4332
СКИ	-12.4336
▁Чин	-12.4337
▁Волошиной	-12.4349
▁стоянка	-12.4349
▁Шестакова	-12.4349
▁Загородно	-12.435
▁Вешенск	-12.435
▁Яйв	-12.4356
▁Пестяковск	-12.4375
▁Варваровка	-12.4385
▁Витязев	-12.4385
▁Подбельского	-12.4385
▁Светлов	-12.4393
▁Чурапч	-12.4399
Интернационалист	-12.44
▁Тунгокочен	-12.4402
▁Кустанайск	-12.442
▁Вагай	-12.4421
▁Бурнаковск	-12.4422
▁Разведчик	-12.4427
Песочное	-12.4427
▁Увал	-12.4435
▁Светлинск	-12.4437
института	-12.4438
▁Типанова	-12.4438
▁Межевой	-12.4442
▁Чекмагуш	-12.4448
▁Солян	-12.445
метово	-12.4454
ополис	-12.4454
▁Павшинский	-12.4455
уткинск	-12.4473
▁Аптекарск	-12.4473
▁Охтинская	-12.4473
▁Новозав	-12.4473
▁Курьинский	-12.4474
▁Вольно	-12.448
Ордынский	-12.4487
синовская	-12.4494
▁Краснозвездн	-12.4509
▁Шлюзов	-12.4509
▁Глушица	-12.4509
▁Учкекен	-12.4509
▁Васюринск	-12.4509
▁Холодильн	-12.4509
▁Жилгородок	-12.4509
▁Дворцов	-12.451
▁Сулак	-12.4513
моуц	-12.4521
▁Фомич	-12.4526
▁Кокуй	-12.4527
▁Газет	-12.4527
▁Шоген	-12.4527
▁Мартов	-12.4531
▁Свеч	-12.4535
▁Жир	-12.4537
▁Грайворонов	-12.4539
▁Рашпил	-12.4544
▁Шерегеш	-12.4544
▁Началов	-12.4549
Тал	-12.4557
▁Березки	-12.4562
▁Милицейская	-12.4562
▁Юность	-12.4562
▁Еремеев	-12.4562
▁Шахтер	-12.4564
▁Чебышев	-12.4568
▁Шахтн	-12.457
▁Вахруш	-12.4573
▁Игнатьев	-12.4575
▁Иринов	-12.4579
▁Крутихинский	-12.458
▁Созидател	-12.458
▁Балаган	-12.4592
▁Кумторкалинск	-12.4598
▁Чистопрудн	-12.4598
▁Барсово	-12.4602
▁Стройков	-12.4605
▁Рез	-12.4613
▁Мавлютов	-12.4616
▁Карима	-12.4616
▁Жем	-12.4617
▁Заозерск	-12.4634
хмет	-12.4638
улак	-12.464
Хованск	-12.4644
▁Кибаль	-12.4652
▁Планетная	-12.4652
▁Ленинкент	-12.4653
▁Тас	-12.4655
▁Латн	-12.4657
ограда	-12.4663
рнавская	-12.4666
▁Котлярова	-12.467
▁Спокойн	-12.467
▁Хороль	-12.4673
Большерецк	-12.4689
▁Белиджи	-12.4689
▁Театральный	-12.4689
▁Сарпинск	-12.469
▁Попович	-12.4692
▁Домостроитель	-12.4697
кипело	-12.4707
▁Хромов	-12.4707
▁Каран	-12.4721
▁Азат	-12.4724
▁Афанасово	-12.4725
▁Лагерная	-12.4725
▁Солдата	-12.4725
▁Гриш	-12.4726
▁Газетная	-12.4728
▁санатория	-12.4743
▁Деревенская	-12.4744
▁Троица	-12.4744
онежск	-12.4755
▁Калашникова	-12.4762
▁Сибгат	-12.4762
▁Солонешенск	-12.4762
▁Гляд	-12.4762
▁Длинн	-12.4763
Колено	-12.4764
▁Наташи	-12.4765
▁Шейнкмана	-12.478
РЕБ	-12.4798
▁Коростелев	-12.4798
▁Свиридова	-12.4798
▁Хакима	-12.4798
▁Подводник	-12.4798
▁Боков	-12.4802
▁Гончарн	-12.4804
нгер	-12.4807
▁Печерск	-12.4814
▁Подлесное	-12.4817
▁Чемальский	-12.4817
комиссаров	-12.4835
▁Крепостн	-12.4835
▁Медвежь	-12.4853
▁Труженик	-12.4853
▁Спорт	-12.4857
▁Мурта	-12.4863
▁Дау	-12.4867
▁Крутой	-12.487
▁Екатеринослав	-12.4872
▁Баграм	-12.4872
▁Павелец	-12.4872
▁Боготольский	-12.4872
▁Камышлинский	-12.4872
шарт	-12.4872
труд	-12.4875
▁Дани	-12.4887
▁Бочкарев	-12.4891
▁Луков	-12.4903
▁Мартын	-12.4905
▁Максим	-12.4909
▁Костюшко	-12.4909
Аносова	-12.4911
▁Локомотивный	-12.4913
▁Калинин	-12.4915
▁Сике	-12.4916
▁Переяслов	-12.4928
▁Научный	-12.4928
▁Сибирь	-12.4928
▁Обнор	-12.4928
▁Золотарев	-12.4928
▁Евгени	-12.4933
▁Бредова	-12.4938
▁Муста	-12.4943
▁Кругов	-12.4945
▁Ангелов	-12.4946
▁Профинтерн	-12.4946
▁Пятилет	-12.4947
▁Пеновск	-12.4954
▁улице	-12.4965
▁Маклаков	-12.4965
▁Туманов	-12.4971
луйский	-12.4975
▁Газимур	-12.4984
▁Телевизионн	-12.4984
▁Рыбачье	-12.4984
▁Исмаил	-12.4984
▁Ходын	-12.4984
▁Водн	-12.4989
▁Кирзавод	-12.4993
▁Захаренко	-12.4999
▁Нейв	-12.5
▁Юнтоловск	-12.5002
▁Ставров	-12.5005
▁Власт	-12.5006
▁Савицко	-12.5008
▁Телеграфн	-12.5021
▁Бирилюсск	-12.5021
▁Гурьева	-12.5021
▁Кубовая	-12.5021
▁Ислам	-12.5022
▁Летчика	-12.5022
▁Космос	-12.504
▁Столбы	-12.504
▁Кузьмино	-12.5046
▁Метальников	-12.5059
▁Новосокольни	-12.5067
▁Челноков	-12.5075
▁Триумфальн	-12.5078
Пустынь	-12.5078
▁Нагаево	-12.5078
Хузанга	-12.5078
Марфино	-12.5078
▁Кубин	-12.508
▁Саввинск	-12.5081
▁Москаленк	-12.5096
▁Бутырская	-12.5096
▁Керамический	-12.5096
▁Участок	-12.5096
▁Ирафск	-12.5097
▁Лазарев	-12.5106
▁Комбинат	-12.5115
▁Листвян	-12.5115
▁Украинк	-12.5115
▁Коммунальный	-12.5115
▁Криводанов	-12.5116
▁Лож	-12.5119
▁Богучан	-12.512
▁Солнцев	-12.5123
Двуреченск	-12.5134
▁Аптечн	-12.5134
▁Серноводск	-12.5134
▁Васнецов	-12.5134
▁Истомин	-12.5134
▁Дне	-12.5136
▁Новозаводск	-12.5143
толово	-12.5149
▁Брусничная	-12.5153
▁Зарубина	-12.5153
▁Тенистый	-12.5153
▁Шаймуратов	-12.5153
йнен	-12.5159
▁Парус	-12.5161
Сол	-12.5162
▁Ребрих	-12.5169
▁Главмосстро	-12.5172
▁Заборье	-12.5172
▁Кристалл	-12.5172
▁Добросельск	-12.5172
Байкальский	-12.5175
▁Татьянин	-12.5192
▁Максаков	-12.5192
▁Лысогорск	-12.5193
леуш	-12.5198
▁Софьин	-12.5207
▁Рузаев	-12.5208
▁Яблонька	-12.5211
▁Синяв	-12.5229
▁Новокузьмин	-12.523
▁Веселое	-12.523
▁Самуил	-12.523
▁Семёнов	-12.5234
▁Так	-12.5236
▁Царев	-12.5251
▁Чугуев	-12.5255
▁МКР	-12.5268
▁Футбольная	-12.5268
Стародеревенская	-12.5269
▁Стальского	-12.5269
▁Мочал	-12.5269
▁Купели	-12.5274
▁Архар	-12.5284
▁Крестов	-12.5284
▁Шерл	-12.5287
▁Литейный	-12.5288
Гамидова	-12.5288
▁Тужин	-12.529
▁Перекоп	-12.529
▁Тындинск	-12.5296
огорка	-12.5302
▁Авиамоторн	-12.5307
▁Береговое	-12.5307
▁Пикалев	-12.5308
▁Кабал	-12.5308
▁Мошково	-12.5308
▁Изобильн	-12.5321
▁Могил	-12.5327
▁Смолян	-12.5328
▁Геннадия	-12.5346
▁Чал	-12.5348
▁Матрос	-12.535
▁Реш	-12.5364
▁Праскове	-12.5365
▁СНО	-12.5365
▁Уваров	-12.5367
▁Олекминск	-12.5367
▁Производственн	-12.5373
▁Тл	-12.5378
▁Бабино	-12.538
▁ПМК	-12.5384
▁Прокуд	-12.5385
андех	-12.5386
лецкого	-12.5387
▁Сернур	-12.5391
▁Станово	-12.5392
Атаги	-12.5392
▁Солдатское	-12.5404
▁Башкир	-12.5404
▁Семейн	-12.5404
▁Залари	-12.5405
игали	-12.5405
▁Аверкиев	-12.5423
▁Дерябино	-12.5423
▁Лепсе	-12.5423
▁Озёр	-12.5424
▁Муравьева	-12.5424
Стрижи	-12.5424
▁Муратов	-12.5424
Никольское	-12.5425
▁Лаврово	-12.5425
▁Полиграфист	-12.5434
Под	-12.5441
▁Тогу	-12.5443
Автолюбителей	-12.5443
▁Буревестник	-12.5443
ёмы	-12.5445
▁Нефтебаз	-12.5447
▁Прибалтийск	-12.5463
▁Плодов	-12.5463
Антонова	-12.5464
▁Брест	-12.5466
▁Глеба	-12.5482
▁Маныч	-12.5483
ябина	-12.5483
▁Рубцов	-12.55
▁Сибирцево	-12.5502
Калман	-12.5504
▁Лунино	-12.5506
▁Инсар	-12.5509
оистокск	-12.5516
Соколенк	-12.5521
▁Крестин	-12.5522
▁Федотов	-12.5523
▁Змеиногорск	-12.5524
▁Жирятин	-12.5532
▁Чердакл	-12.5541
▁Линейный	-12.5541
▁Нюрба	-12.5541
▁Бубнов	-12.5542
▁Казанцев	-12.5543
Камышен	-12.5549
▁Смольн	-12.5551
▁Каргин	-12.5555
деревенск	-12.5561
▁Киселева	-12.5561
▁Шейха	-12.5561
▁Потребительск	-12.5561
▁Короткий	-12.5562
▁Эвенкийск	-12.5562
▁Болохов	-12.5562
енщиков	-12.5563
▁Баяндаевск	-12.5581
▁Хивский	-12.5581
равова	-12.5589
▁Свечин	-12.5592
▁Энтузиаст	-12.5597
▁Льнозавод	-12.5601
▁Ощепков	-12.5601
▁Погонн	-12.5601
аганск	-12.5602
стужева	-12.5616
▁Григори	-12.5616
▁Композитор	-12.5617
▁Гавр	-12.5621
обратим	-12.5621
▁Горьковское	-12.5621
▁Тюльпан	-12.5621
▁Анкудинов	-12.5621
▁Красноселькуп	-12.5621
▁Пристанн	-12.5622
▁Чекалин	-12.5622
Надеждинск	-12.5625
▁Парад	-12.563
▁Антонов	-12.5636
енягин	-12.5637
▁Бараба	-12.564
▁Годов	-12.5641
▁Сидоренко	-12.5641
▁Веденяпин	-12.5641
▁Елшанка	-12.5641
▁Урванцев	-12.5641
▁Михалков	-12.5647
▁Журавлев	-12.5655
▁Кудрин	-12.5657
▁Прямая	-12.5661
▁Оружейн	-12.5661
▁Военная	-12.5661
▁Рутульск	-12.5661
▁Милаш	-12.5662
▁Темир	-12.5678
▁Электрик	-12.5681
▁Жлоб	-12.5681
▁Большакова	-12.5683
▁Рыбаков	-12.5687
▁Ойу	-12.5688
▁Кедрова	-12.5694
▁Чарков	-12.57
рофлот	-12.5701
Кумача	-12.5701
▁Социали	-12.5701
▁Шелопугин	-12.5701
▁Шурышкар	-12.5701
▁Симир	-12.5706
▁Магомед	-12.5709
▁Икрян	-12.5716
▁Таба	-12.5721
▁Наговицын	-12.5721
▁Транс	-12.5721
▁Потылиц	-12.5721
▁Слуцко	-12.5721
▁Подстанция	-12.5722
▁Заброд	-12.5722
▁Камски	-12.5728
актама	-12.5732
▁Феодосийск	-12.5741
▁Станичн	-12.5742
▁Гранов	-12.5756
▁Ибрагим	-12.5759
▁Подзол	-12.5761
▁Овраг	-12.5761
▁Огородный	-12.5761
▁Жатай	-12.5761
▁павил	-12.5772
ьюто	-12.5775
▁Тегульдет	-12.5782
▁Сейм	-12.5782
▁Каменноо	-12.5785
▁Шекснинск	-12.5789
▁Сочинская	-12.5789
▁Тимер	-12.5789
▁Мглин	-12.5791
▁Давыдков	-12.5802
▁Коксов	-12.5802
▁Силикат	-12.5818
▁Васильевский	-12.5822
▁Вербилки	-12.5822
▁Нарышкин	-12.5823
Тушинский	-12.5823
▁Мартыновка	-12.5825
▁Кордон	-12.5825
▁Крестьян	-12.5827
▁Литвинова	-12.5828
▁Филин	-12.5828
Нейвинск	-12.5831
▁Жив	-12.5831
Федоровская	-12.5833
▁Лиственн	-12.5843
▁Ромашковая	-12.5843
▁Чонгар	-12.5843
▁Ключевой	-12.5844
▁Ткаче	-12.5851
▁Полуян	-12.5855
▁Тимм	-12.5857
▁Рабфаковск	-12.5863
▁Баскунчак	-12.5863
▁Лукьяненко	-12.5863
аскес	-12.5864
ачалов	-12.5875
▁Пше	-12.5881
▁Медынь	-12.5884
▁Галеев	-12.5884
▁Панг	-12.5897
блок	-12.5901
▁Площадь	-12.5904
▁Шагольская	-12.5904
▁Ольховат	-12.5905
▁Минаев	-12.5911
Изумруд	-12.5925
▁Амелин	-12.5925
▁Рогнедин	-12.5925
Сосн	-12.5926
▁Варги	-12.5935
сибирская	-12.5943
▁Гвозд	-12.5945
▁Ивангород	-12.5946
▁Между	-12.5951
▁Топор	-12.5966
▁Казар	-12.5967
Центральный	-12.597
▁ДСК	-12.5972
▁Долин	-12.5972
рманд	-12.5978
▁Дегтяр	-12.5982
образование	-12.5986
▁Мартеновск	-12.5986
▁Пламя	-12.5986
▁Понтонный	-12.5986
▁Ветлуг	-12.5986
▁Качалова	-12.5986
▁Хасын	-12.5986
▁Лухов	-12.5989
▁Осинов	-12.5994
▁Зыково	-12.6009
▁Пластуновск	-12.6018
▁Выставочная	-12.6028
▁Душист	-12.6028
▁Барсуки	-12.6028
▁Прокопи	-12.6028
▁Лесхозн	-12.6028
▁Ахмед	-12.6028
▁Полянская	-12.603
▁Кукуштан	-12.6049
▁Дорога	-12.6049
▁Сухарев	-12.6049
▁Казанищ	-12.605
▁Архипов	-12.6052
еньг	-12.6052
▁Курчало	-12.6053
▁Дульдургинск	-12.6057
▁Завокзальная	-12.6069
▁Лыткин	-12.6069
▁Кадников	-12.6073
Ключ	-12.6075
▁Депо	-12.6075
▁Костенк	-12.608
▁Пристанционн	-12.609
▁Кильмезь	-12.609
▁Родниковый	-12.6091
▁Курджи	-12.6094
▁Кривянск	-12.6094
▁Горьковская	-12.6111
▁Мордово	-12.6113
▁Хеве	-12.6115
▁Одоев	-12.6129
▁Волош	-12.6131
▁Магомедова	-12.6135
лести	-12.6139
▁Автотранспортн	-12.6144
▁Литов	-12.615
▁Табор	-12.6153
тагай	-12.6155
▁Боев	-12.6155
ожу	-12.6157
Усово	-12.6158
▁Ветлужск	-12.6158
▁Поддор	-12.6162
▁Варламов	-12.6174
▁свх	-12.6174
▁Зенит	-12.6175
▁Шигаев	-12.6175
▁Опле	-12.6184
чтовое	-12.6195
▁Дергачи	-12.6195
▁Зеленоборск	-12.6195
▁Грекова	-12.6195
тоянц	-12.6196
▁Кротов	-12.62
▁Ход	-12.62
обыт	-12.6203
зерье	-12.621
▁Танкист	-12.6213
Вол	-12.6214
▁Современник	-12.6216
▁Аметьевская	-12.6217
▁Андреевский	-12.6217
Якут	-12.6224
▁Аксаков	-12.6236
▁Тляратинск	-12.6238
▁Воевод	-12.6238
олобов	-12.6239
▁Шагова	-12.6239
▁Сысоев	-12.624
рёх	-12.6241
▁Кижингинск	-12.6247
▁Коробков	-12.625
▁Князев	-12.6253
▁Коктебель	-12.6259
▁Натуха	-12.6259
▁Трибу	-12.6259
▁собственн	-12.6259
▁Аллейн	-12.6259
▁Саперн	-12.6259
▁Бахчи	-12.6261
Кагальницк	-12.628
▁Боткин	-12.628
▁Оболенск	-12.628
▁Зуя	-12.6281
▁Филипп	-12.6296
▁Новорождествен	-12.6302
▁Шагонар	-12.6302
▁Газовая	-12.6303
бож	-12.6307
▁Бунин	-12.6309
▁Михалев	-12.6309
▁Повар	-12.6309
▁Павлю	-12.6314
▁Мокрушин	-12.6322
▁Алябьев	-12.6323
▁Девичье	-12.6323
▁Жаворонки	-12.6323
▁Кузнечиха	-12.6323
▁Пыщуг	-12.6323
урысев	-12.6323
▁Мстихин	-12.6323
▁Губино	-12.6328
▁Солянк	-12.6331
▁Приовражн	-12.6344
Разумовский	-12.6344
▁Таватуй	-12.6344
▁Безымянный	-12.6345
▁Карачаров	-12.6348
▁Плав	-12.6355
▁Физкультурник	-12.6357
▁Право	-12.6361
▁Гидротехническ	-12.6366
▁Иосифа	-12.6366
Катун	-12.6367
▁Гребен	-12.6383
▁Архитектурная	-12.6387
▁Займище	-12.6387
▁Окунев	-12.6388
▁Балахт	-12.6406
▁Растоп	-12.6409
▁Воскресенка	-12.6409
▁Дивенск	-12.6409
▁Сакмар	-12.6422
▁Газовик	-12.6427
▁Ягодный	-12.643
▁Красненьк	-12.6431
▁Булун	-12.6434
▁Юрлинск	-12.6438
ишви	-12.6452
▁Ладыгин	-12.6452
▁Ахматовой	-12.6453
▁Тацинск	-12.6458
Камский	-12.6462
лежал	-12.6464
▁Чавайн	-12.6474
▁Извилист	-12.6474
▁Кобяйский	-12.6474
▁Лесопильн	-12.6474
▁Огонек	-12.6474
▁Ростоши	-12.6474
▁Рябинушка	-12.6474
▁Экажев	-12.6474
▁Фарман	-12.6474
▁Чернозем	-12.6474
▁Федор	-12.6475
▁Купал	-12.6483
▁Хруст	-12.6517
▁Фасадн	-12.6517
▁Колотилов	-12.6517
▁Чулков	-12.6519
▁Бурлинский	-12.6519
▁Тарутин	-12.6522
▁Княз	-12.6524
▁Березин	-12.653
▁Бобков	-12.653
▁Светофор	-12.6539
▁Севастьянов	-12.6539
▁Редькино	-12.6539
▁Сигаев	-12.654
▁Сосков	-12.654
▁Таз	-12.6549
▁Варгаши	-12.6554
▁Зоологическ	-12.6561
▁Батальона	-12.6561
▁Красавино	-12.6562
▁Курах	-12.6563
▁Старцева	-12.6564
▁Воронино	-12.6566
▁Свин	-12.6572
нюсск	-12.6583
▁Решетникова	-12.6584
▁Жол	-12.6589
▁Таманско	-12.6595
▁Коминтерн	-12.6603
венкийск	-12.6605
▁Губайдуллин	-12.6605
▁Торфяная	-12.6605
▁Транзитн	-12.6605
▁Шеболдаева	-12.6605
▁Водян	-12.6607
▁Павлович	-12.661
▁Кузин	-12.6612
Олимпийская	-12.6614
▁Кабельщик	-12.6627
▁Назарьев	-12.6627
▁Тигиль	-12.6627
▁Долгий	-12.6627
▁Марёв	-12.6627
▁Машинн	-12.6627
совхоз	-12.6649
▁Андрианова	-12.6649
▁Приобь	-12.6649
▁Большереч	-12.6651
▁Авдеев	-12.6661
▁Ольхонский	-12.6671
▁Сафиулл	-12.6671
▁Угольная	-12.6671
▁Можар	-12.6672
▁Кузьминка	-12.6673
ицкой	-12.6675
ошь	-12.6678
▁Субботин	-12.6693
▁Фермское	-12.6693
хабль	-12.6694
▁Любан	-12.6696
▁Яшьл	-12.6716
▁Свиязева	-12.6716
▁Андреевское	-12.6716
▁Сует	-12.6725
▁Хилок	-12.673
▁Сапож	-12.6737
▁Чародинск	-12.6738
▁Полянич	-12.6739
▁Новоугольн	-12.6739
отар	-12.6745
аденко	-12.6746
белик	-12.6755
▁Инструменталь	-12.676
▁Лубян	-12.676
уницип	-12.6783
▁Тирлянск	-12.6783
▁Полежаев	-12.6783
▁Богаты	-12.6795
Мехрен	-12.6795
нгильдин	-12.6805
▁Утренняя	-12.6805
▁Уфимцева	-12.6805
▁Ковшово	-12.6805
Кинельский	-12.6815
Коммун	-12.6827
▁Бусыгин	-12.6827
▁Ойсхар	-12.6827
▁Первопроходц	-12.6827
▁Чесноковка	-12.6827
гомыж	-12.6827
▁Мурзин	-12.6828
▁Тоцкое	-12.6829
▁Полиграф	-12.6838
▁Кунцев	-12.6844
▁Тукаев	-12.6847
▁Новогодняя	-12.685
▁Строгин	-12.6861
▁Платонов	-12.6869
▁Геодезическая	-12.6873
▁Новостроек	-12.6873
▁Чагода	-12.6873
▁Оймякон	-12.6873
▁Новосмол	-12.6873
▁Посель	-12.6875
▁Белышев	-12.688
Матросова	-12.6883
▁Куусин	-12.6895
▁Толбазы	-12.6895
▁архитектора	-12.6895
▁Парниковая	-12.6895
▁Бобр	-12.6905
▁Мшинск	-12.6906
▁Кетов	-12.6908
▁Тотм	-12.6918
▁Колышкин	-12.6918
▁Криворож	-12.6919
▁Карьерный	-12.692
▁Туров	-12.6931
▁Абсалямов	-12.6941
▁Мостовицкая	-12.6941
▁Рукавишников	-12.6941
▁Батальн	-12.6945
▁Барышников	-12.6946
опольская	-12.6952
Березовское	-12.6955
Красильникова	-12.6963
▁Шоссейный	-12.6963
▁Баклаш	-12.6964
▁Шестаково	-12.6964
▁Афон	-12.6969
▁Мытн	-12.6978
ельских	-12.6981
▁Сенгиле	-12.6986
▁луг	-12.6987
▁Акташ	-12.6988
▁Шильн	-12.699
▁Москвич	-12.699
рята	-12.6996
ульман	-12.7003
▁Сурков	-12.7004
▁Пушкарев	-12.7006
гнатовский	-12.7006
▁Байков	-12.7008
▁Академический	-12.7009
▁Альберта	-12.7009
▁Благодатно	-12.7009
▁Изумрудный	-12.7009
▁Бибирев	-12.7009
▁Аршан	-12.701
▁Андреево	-12.7021
западная	-12.7032
▁Краматорская	-12.7032
▁Мундыбаш	-12.7032
▁Якиман	-12.7032
▁Елисеев	-12.7032
▁Бирюсинск	-12.7032
▁Худяков	-12.7043
пита	-12.7044
Крекингск	-12.7055
▁Аскарово	-12.7055
▁Бестях	-12.7055
▁Визин	-12.7055
▁Городищи	-12.7056
▁Акшин	-12.7063
▁Бабиков	-12.7065
▁Рыздвян	-12.7078
▁фабрики	-12.7078
▁Мордовская	-12.7078
▁Василенко	-12.7078
▁Девиц	-12.7079
Архангельский	-12.709
▁Ибр	-12.7091
▁Бураков	-12.7097
▁Гасси	-12.7101
▁Персиков	-12.7101
▁Осинки	-12.7102
▁алле	-12.7116
▁Хомяков	-12.7124
▁Цаган	-12.7124
Митт	-12.7128
ориса	-12.7136
▁Грибанов	-12.7142
▁Рудничная	-12.7147
едвиж	-12.7147
▁Тогульский	-12.7148
ГСО	-12.715
емилов	-12.7164
▁Скальн	-12.7166
▁Альпийский	-12.7171
▁Выползово	-12.7171
▁Окольная	-12.7171
▁Слепнева	-12.7171
▁Березняк	-12.7171
▁Бугарев	-12.7171
Кулиева	-12.7174
▁Омутинск	-12.7181
▁Бондарев	-12.7194
▁Валерии	-12.7194
▁Газинура	-12.7194
▁Омсукчан	-12.7194
▁Терентьев	-12.7194
имости	-12.7194
▁Мишин	-12.7204
▁Батов	-12.7208
▁Галактионов	-12.7217
▁Джамбульск	-12.7217
▁Жулебинск	-12.7217
▁Кипарисовая	-12.7217
▁Трошева	-12.7218
▁Домбайск	-12.7218
▁Чкалов	-12.7222
Дмитриевское	-12.7224
▁Тымовск	-12.7231
▁Вилонов	-12.7237
▁Горняцкий	-12.7241
▁Жизнь	-12.7241
▁Селемджинск	-12.7241
▁Мегет	-12.7241
▁Холмогор	-12.7243
▁Бахметьев	-12.7244
▁Нефтезаводск	-12.7248
летов	-12.7252
▁Правобережн	-12.7252
▁Поселк	-12.7254
▁Ибреси	-12.7254
▁Белоглин	-12.7259
▁Мельница	-12.7264
▁застройки	-12.7264
▁Белокамен	-12.7264
▁Шульгин	-12.7264
Березовка	-12.7278
▁Агапкина	-12.7288
▁Паустов	-12.7288
▁Карташев	-12.7288
▁Кильд	-12.7288
анджи	-12.7296
▁Чиркей	-12.7311
▁Бехтеев	-12.7311
▁Меся	-12.7312
▁Кукуев	-12.7312
▁Крылат	-12.7336
Лазо	-12.7349
▁Гашков	-12.7354
▁Сунтар	-12.7354
гурт	-12.7356
Айдамиров	-12.7359
▁Автур	-12.7359
▁Культурная	-12.7359
▁Видяев	-12.7359
▁Костюков	-12.7363
▁Каратузск	-12.7369
ербетовский	-12.737
идовский	-12.7376
▁Брюсов	-12.7382
▁Ближняя	-12.7382
▁Зеркальн	-12.7382
▁Буньков	-12.7389
▁Селекционн	-12.7406
▁Нагибин	-12.7406
▁Сектор	-12.7406
▁Частоозер	-12.7406
▁Лыжны	-12.7406
▁Залк	-12.7406
▁Пронск	-12.7412
▁Революционн	-12.7429
▁Проезд	-12.7429
лобыст	-12.743
▁Заплав	-12.743
▁Партенит	-12.743
▁Преградн	-12.743
▁Леонов	-12.7431
Дову	-12.7432
абахина	-12.7432
▁Замятин	-12.7442
▁Новоукраинск	-12.7454
▁Ремезов	-12.7454
▁Бобруйск	-12.7454
▁Лукьянов	-12.7454
клон	-12.7461
▁Курилов	-12.7463
▁Солдато	-12.7472
▁Вельяминов	-12.7478
▁Новодмитриев	-12.7478
▁Крахмал	-12.7478
▁Ноксинский	-12.7478
▁Гикало	-12.7478
▁Дыг	-12.7478
▁Барвих	-12.7478
▁Кукле	-12.748
▁Уйско	-12.7481
епси	-12.7489
▁Металл	-12.7502
▁Бархатово	-12.7502
▁Медицинский	-12.7502
▁Пурпе	-12.7502
▁Товарная	-12.7502
▁Болдырев	-12.7502
▁Огарева	-12.7503
Рязанский	-12.7517
▁Беломестн	-12.7526
▁Цунтинск	-12.7526
▁Чойский	-12.7526
▁Гнил	-12.7528
Батора	-12.753
▁Павин	-12.7535
▁Лопат	-12.7535
участок	-12.7541
▁Краснозоренский	-12.755
▁Площадка	-12.755
▁Тупиковая	-12.755
▁Целиноградск	-12.755
▁Деденев	-12.7551
▁Караванн	-12.7551
▁Тойм	-12.7555
▁Нижегород	-12.7558
рогат	-12.7569
▁Макарьев	-12.7574
▁Вересковая	-12.7575
▁Кольцевой	-12.7575
▁Оптимист	-12.7575
▁Стрельбищенск	-12.7575
▁Вохто	-12.7575
▁Поречн	-12.7575
▁Сокольско	-12.7579
▁Лиманн	-12.7588
▁Амбулаторн	-12.7599
▁Аграрн	-12.7599
▁Богатое	-12.7599
▁Среднеколымск	-12.7599
▁Линда	-12.76
▁Вож	-12.7605
▁Таксимо	-12.7623
▁Чудинов	-12.7624
▁Муравская	-12.7624
▁Мышкин	-12.7646
▁Парфеньев	-12.7648
▁Красав	-12.7651
▁Чечулин	-12.7654
▁Данил	-12.7673
▁Лас	-12.7674
ёткин	-12.7675
▁Байконур	-12.7696
▁Артюхино	-12.7697
▁Опытное	-12.7697
▁Парфенов	-12.7697
▁Микоян	-12.7697
▁Тимош	-12.77
▁Тишин	-12.7709
алтачев	-12.7718
▁Леонтьев	-12.7721
▁Онохой	-12.7721
▁Сазонова	-12.7721
▁Слуд	-12.7721
▁Агрогородок	-12.7721
▁Шолом	-12.7722
▁Белкин	-12.7733
▁Гамов	-12.7742
▁Веер	-12.7743
▁КАПО	-12.7746
▁Разлив	-12.7746
▁Кусимов	-12.7746
▁Малахитовая	-12.7746
▁Чистякова	-12.7746
▁Кадыков	-12.7748
обан	-12.7767
расноказарменная	-12.777
▁Оверят	-12.777
▁Томмот	-12.777
▁Проектн	-12.7771
▁Плановая	-12.7771
▁Рид	-12.7775
▁Лобненск	-12.7782
▁Исян	-12.7784
▁Текстил	-12.7795
▁Мерецкова	-12.7795
▁Антроповский	-12.7795
▁Керамическая	-12.7795
авто	-12.78
▁Балтаси	-12.7801
▁Терехов	-12.7806
▁Чернышов	-12.782
алороссийск	-12.782
▁Джона	-12.782
▁Посьет	-12.782
▁Шелгунов	-12.782
Качка	-12.7825
▁Белан	-12.7828
мшина	-12.7839
▁Завидн	-12.7845
▁Тухват	-12.7845
▁владельцев	-12.7845
▁Затонн	-12.7857
▁Сердоб	-12.7866
▁Памяти	-12.787
▁Усиевича	-12.787
▁Челбас	-12.787
▁Васютин	-12.787
▁Вишенк	-12.787
▁Кусков	-12.7875
▁Сумин	-12.7894
▁Выездно	-12.7895
▁Память	-12.7895
▁Очаковск	-12.7895
▁Силин	-12.7903
Ульянов	-12.7912
поселок	-12.7913
▁Высоко	-12.7919
▁Вертолёт	-12.792
▁Мочище	-12.792
▁Икорец	-12.792
▁Кубяк	-12.7921
▁Емл	-12.7928
▁Убинск	-12.7931
▁Мелитопольская	-12.7945
▁Саргатск	-12.7958
НИИС	-12.797
ломея	-12.797
▁Торосов	-12.7971
▁Пехотин	-12.7972
▁Краснозатонск	-12.7995
▁Мервинск	-12.7997
▁Темиргое	-12.8004
▁Электрифика	-12.8021
▁Звёздная	-12.8021
▁Игуменка	-12.8021
▁Павших	-12.8021
▁Столяров	-12.8021
▁Батюшков	-12.8021
йхем	-12.803
▁Элитн	-12.8039
▁Дугин	-12.804
▁Качуг	-12.8045
▁Енотаев	-12.8045
единение	-12.8046
▁Таволжан	-12.8046
▁Карпенко	-12.8046
▁Чуднов	-12.8046
▁Репище	-12.8047
▁Интернат	-12.8072
▁Курсав	-12.8072
улыб	-12.8072
▁Дворики	-12.8073
▁Митрофан	-12.8091
▁Тимашев	-12.8095
▁Агроном	-12.8097
▁Буерак	-12.8097
▁Привокзально	-12.8097
▁Шаталов	-12.8102
балка	-12.8116
квартал	-12.8117
▁Чесм	-12.8122
▁Грабов	-12.8123
▁Чубаров	-12.8123
сониевск	-12.8123
▁Токаре	-12.8131
▁Демьян	-12.8132
▁Сорок	-12.8142
▁Селижаров	-12.8148
▁Темижбекск	-12.8148
фабрика	-12.8148
▁месторождение	-12.8148
▁Протасов	-12.8148
▁Борьб	-12.8149
▁Клюев	-12.8149
Печорск	-12.815
▁Карамышев	-12.8164
▁Мокроус	-12.817
▁Краснохолм	-12.8173
▁Планета	-12.8174
▁Полянк	-12.8179
▁Лямин	-12.818
▁Портнов	-12.818
рамши	-12.819
▁Алюминиев	-12.82
▁Автодорога	-12.82
▁Сафронов	-12.82
▁Семибратов	-12.82
▁Каликино	-12.82
▁Рейдов	-12.82
▁Любинск	-12.8201
▁Юров	-12.8201
▁Яблон	-12.8212
▁Ромненский	-12.8226
▁Горпище	-12.8226
▁Барыбин	-12.8226
▁Махалин	-12.8227
▁Краснознам	-12.8231
▁Катерн	-12.8231
▁Кальн	-12.8241
▁Коммуна	-12.8246
▁Краснопролетар	-12.8251
▁Монтажная	-12.8252
▁Окружное	-12.8252
▁Петля	-12.8252
▁Ромашин	-12.8252
▁Солнышко	-12.8252
▁Песочн	-12.8255
▁Герменч	-12.8277
▁Вагонная	-12.8277
фронт	-12.8277
▁Мурыгин	-12.8278
опани	-12.8302
▁Бызова	-12.8304
▁Икша	-12.8304
▁Кырл	-12.8304
баканский	-12.8305
▁Герасим	-12.8321
Расковой	-12.8325
▁Подполков	-12.833
▁Караульная	-12.833
▁Тарчокова	-12.833
▁Упорн	-12.833
▁Прыг	-12.833
▁Янаби	-12.8333
Камен	-12.835
▁Татышл	-12.8351
▁Новохоп	-12.8354
▁Инкерман	-12.8356
▁Невзоров	-12.8356
▁Русские	-12.8356
▁Ершич	-12.8356
▁Вербов	-12.8361
▁Мурашкин	-12.8372
▁Автомагистраль	-12.8382
▁Павлоград	-12.8383
▁Античн	-12.8405
брига	-12.8407
▁Штурманск	-12.8408
▁Сутырин	-12.8408
▁Расула	-12.8408
кручин	-12.8409
▁Коноков	-12.8409
▁Косухин	-12.8423
имин	-12.843
▁Бельмесев	-12.8435
▁Потемкина	-12.8435
▁Торговый	-12.8435
▁Креп	-12.8435
▁Пучков	-12.8436
▁Поленов	-12.844
▁Севск	-12.844
Междуречье	-12.8445
▁Гурзуф	-12.8461
▁Моркваши	-12.8461
▁Церковная	-12.8461
▁Ропшинск	-12.8461
нгур	-12.8464
довцев	-12.8464
▁Ковали	-12.8467
▁Трусов	-12.8474
▁Обливск	-12.8477
▁Читинск	-12.8479
Артиллеристов	-12.8488
▁Белоостров	-12.8488
▁Сукром	-12.8488
▁Леонтьевича	-12.8488
метьево	-12.8488
▁Бахарев	-12.8489
▁Белоусов	-12.8496
ольного	-12.8498
▁Закиров	-12.8498
▁Зырянов	-12.8514
▁Надречная	-12.8514
▁Пустошка	-12.8514
▁Урыв	-12.8514
▁Мирско	-12.8515
Ахмад	-12.8526
Бринского	-12.8534
▁Промзона	-12.8541
▁затон	-12.8541
▁Тараканов	-12.8542
▁Березанск	-12.8543
▁Булан	-12.8564
▁Мальцева	-12.8568
▁Овсяно	-12.8568
▁Коровино	-12.8568
▁Печатников	-12.8569
рбан	-12.8592
▁Дейнеки	-12.8595
▁Зиновьев	-12.8595
▁Брусян	-12.8595
▁Свердлов	-12.8597
юбин	-12.86
▁Артемовск	-12.8602
▁Трехгорн	-12.861
▁Гойт	-12.8611
▁Лоскутов	-12.8621
▁Сталина	-12.8621
▁Уфимско	-12.8623
одмосковный	-12.8629
▁Эжвинск	-12.8648
▁Зюзин	-12.8648
▁Юстинск	-12.8651
ейтенант	-12.8673
▁Аммосова	-12.8675
▁Грабцевск	-12.8675
▁Кагальник	-12.8675
▁Хреново	-12.8675
▁Култук	-12.8675
горелово	-12.8683
Иванова	-12.8699
Советская	-12.8699
▁Кудряшов	-12.8703
▁Залесово	-12.8703
▁Александрийская	-12.8703
жерел	-12.8704
▁Хибинск	-12.8704
▁Кавказ	-12.8716
▁Ледов	-12.8721
▁Белоярск	-12.8722
▁Мег	-12.8728
▁Исполком	-12.873
▁Арсланов	-12.873
таханов	-12.8737
▁Апанасенко	-12.8751
▁Куранах	-12.8757
▁Просторный	-12.8757
▁Айдаров	-12.8757
▁Гребенщик	-12.8763
▁Борисенк	-12.8765
Карамышевская	-12.8768
▁Чистоозерн	-12.8772
▁Новоселицк	-12.8778
▁Вперед	-12.8784
▁Звягин	-12.8784
▁Ботвин	-12.8784
▁Федоровского	-12.8785
▁Коровников	-12.8785
▁Гехи	-12.8791
Геофизиков	-12.8804
▁Кривенков	-12.8808
▁Ветерок	-12.8812
▁Деловая	-12.8812
▁Ромашки	-12.8812
▁Ямно	-12.8818
▁Тугу	-12.883
▁Куприянова	-12.8839
▁Ручеек	-12.8839
▁Голосов	-12.884
▁Славн	-12.8857
▁Мальцево	-12.8867
▁Побеж	-12.8867
аскара	-12.8874
▁Москворечье	-12.8894
▁Овсянк	-12.8894
▁Приозерное	-12.8894
▁Четвертая	-12.8894
▁Питерк	-12.8894
▁Мопра	-12.8894
▁Емлютина	-12.8894
▁Ашук	-12.8896
▁Шеронов	-12.8901
▁Рови	-12.8907
▁Кооператор	-12.8922
▁Лодыгина	-12.8922
▁Непокорённых	-12.8922
еределки	-12.8922
▁Канала	-12.8922
▁Элита	-12.8923
▁Новостроев	-12.8924
▁Заветинск	-12.8932
Полян	-12.8938
▁Писков	-12.8939
▁Бисер	-12.8949
▁Чамлык	-12.895
▁Поливанов	-12.895
▁Зимняя	-12.895
▁Шипицын	-12.895
▁Переходн	-12.8951
дуба	-12.8972
▁Одинцов	-12.8974
▁Сибиряк	-12.8976
▁Крашенин	-12.8978
▁Луксум	-12.8978
▁Опытная	-12.8978
▁Пороховск	-12.8978
▁гвардии	-12.8978
▁Лавриненко	-12.8978
▁Эркен	-12.8978
▁Ильиногорск	-12.8978
▁Вагоностроител	-12.9006
▁Полднев	-12.9006
▁Ижм	-12.9008
Кол	-12.9009
▁Воргашор	-12.9034
питомник	-12.9034
▁Ахвахск	-12.9034
▁ГСЭК	-12.9034
▁Легостаев	-12.9034
▁Сперанского	-12.9034
▁Чёрная	-12.9034
Берша	-12.9037
▁Грачи	-12.9037
▁Эльбрус	-12.9038
▁Рогачи	-12.9042
омановский	-12.9061
▁Богомягкова	-12.9062
▁Пятиморск	-12.9062
▁Сосны	-12.9062
▁Фермерск	-12.9063
Тайгинский	-12.9069
▁Фёдоров	-12.907
▁Гаршин	-12.9072
Петрова	-12.9089
▁Чулпан	-12.909
▁Сызган	-12.909
Тау	-12.9092
▁Колпн	-12.9095
сколь	-12.9107
▁Хворост	-12.9108
▁Дубовско	-12.9112
▁Зольск	-12.9112
Калинина	-12.9117
▁Хохол	-12.9118
▁Окружной	-12.9118
▁Ревякин	-12.9118
▁Тахта	-12.9118
▁Шатойский	-12.9118
▁Курбатов	-12.9118
▁Гомельск	-12.9118
▁Кзыл	-12.9146
▁Бежицк	-12.9147
▁Кишиев	-12.9147
▁Песчанк	-12.9154
Мечет	-12.9173
▁Кабицын	-12.9175
▁Фирса	-12.9175
▁Якуб	-12.9175
еславин	-12.9175
▁Мечетинск	-12.9179
▁Галицк	-12.9195
подвал	-12.9203
бульварн	-12.9203
▁Гамзатова	-12.9203
▁Шехурдина	-12.9203
Иншинский	-12.9204
Бурульский	-12.9204
▁Окатов	-12.9206
▁Турочак	-12.9208
ачёва	-12.9226
Ленинский	-12.9232
▁Воскресенов	-12.9232
▁Панкратов	-12.9232
▁Каскад	-12.9232
▁Блохин	-12.9232
▁Новоорловск	-12.9232
▁Угольны	-12.9257
▁Проселочн	-12.9261
▁Рюмин	-12.9261
▁Сулажгор	-12.9261
▁КМПО	-12.9261
▁Рабкоров	-12.9261
▁Румянцево	-12.9261
▁Транспортник	-12.9261
▁Новорого	-12.9261
▁Орликово	-12.9261
▁Ухтин	-12.9261
▁Ткацк	-12.9262
▁Грачев	-12.9281
▁Горизонт	-12.9289
▁Декабрьски	-12.9289
починок	-12.9289
▁Обильн	-12.929
▁Адам	-12.9292
▁Квар	-12.9293
▁Верзил	-12.9294
▁Кармацк	-12.9297
Садки	-12.9299
инзили	-12.9299
Шарапово	-12.9311
▁Короча	-12.9318
▁Дивизионн	-12.9318
▁Софиев	-12.9318
▁Унинск	-12.932
▁Химическ	-12.9331
ихалковский	-12.9338
▁Шарико	-12.9344
▁Касьянова	-12.9347
▁Кохомско	-12.9347
▁Прогонная	-12.9347
▁Семилетк	-12.9347
▁Челобитьев	-12.9347
▁Отважн	-12.9347
▁Селькоровск	-12.9347
▁Краснопрудн	-12.9347
▁Дегунин	-12.9347
Северное	-12.9348
▁Алехин	-12.9349
Подол	-12.9365
▁Удобн	-12.9376
▁Вагонник	-12.9376
▁Бауманская	-12.9376
▁РКК	-12.9376
▁Электровозная	-12.9376
▁Засоп	-12.9376
станция	-12.9376
▁Алтухов	-12.9376
▁Искател	-12.9387
▁Агеев	-12.9391
▁Озерецк	-12.9399
ровской	-12.9403
Чемодановка	-12.9405
▁железнодорожный	-12.9405
▁Джалга	-12.9406
Советский	-12.9406
▁Петрищева	-12.9434
▁Брусилов	-12.9434
▁Степанц	-12.944
▁Голубицк	-12.9452
▁Подшипник	-12.9454
▁Переселенческ	-12.9463
▁Самотлор	-12.9463
▁Хайдар	-12.9463
▁Чичканов	-12.9463
▁Досчат	-12.9463
Беной	-12.9464
▁Волох	-12.9468
Животноводческая	-12.9493
▁Подтелкова	-12.9493
▁Доктор	-12.9493
▁Тайнинск	-12.9494
▁Петин	-12.9494
▁Нагат	-12.9499
▁Бычк	-12.9501
▁Гаккел	-12.9522
▁Глубокое	-12.9522
штей	-12.9527
▁Ломако	-12.953
▁Гостин	-12.9546
▁Архонск	-12.9552
▁Зауральский	-12.9552
▁автодорога	-12.9552
▁Красномайск	-12.9553
▁Неверов	-12.9553
▁Губанов	-12.957
▁Стеклозавод	-12.9581
▁Пасечн	-12.9582
▁Катунин	-12.9584
техникум	-12.9594
▁Дербет	-12.9596
Халк	-12.9607
▁Звёздный	-12.9611
▁Хушет	-12.9611
▁Ковыльн	-12.9611
▁Писател	-12.9611
Кривов	-12.9628
▁Сретенск	-12.9633
Греческ	-12.9634
▁Жиздр	-12.9634
▁Шалушк	-12.9637
▁Карамалы	-12.9641
▁Мраморн	-12.9641
▁Эрзин	-12.9641
Мияки	-12.9643
▁Новогорн	-12.9646
▁Шухов	-12.9646
Клепик	-12.967
▁Варфоломеев	-12.9671
▁Ахметши	-12.9672
▁Станкостроитель	-12.9672
гильдин	-12.9675
▁Булгаков	-12.9678
▁Муханов	-12.9691
▁Цезаря	-12.97
▁Второе	-12.9701
Терешковой	-12.9703
▁Лесотехни	-12.9718
▁Курьи	-12.9722
▁Галушкин	-12.9725
▁Казьмин	-12.9731
▁Баунтовск	-12.9731
▁Пирятинск	-12.9731
▁Старобислов	-12.9731
▁Старомарьев	-12.9731
▁Екимов	-12.9731
▁Лопсан	-12.9761
▁Ларионов	-12.9761
▁Импульс	-12.9761
▁Новопесчан	-12.9761
▁Солдатски	-12.9761
агрицкого	-12.9761
▁Аминев	-12.9762
▁Источн	-12.977
▁Адмиральск	-12.9771
▁Гарнизонн	-12.9791
▁Стеклян	-12.9791
▁Метростроев	-12.9791
▁Ооржак	-12.9791
▁Хмели	-12.9791
▁Кручин	-12.9791
▁Портян	-12.9802
Решетниково	-12.9816
лиссер	-12.9821
▁Вартемя	-12.9821
▁Карпатская	-12.9821
▁Мелехово	-12.9821
▁Заканаль	-12.9821
▁Барсуков	-12.9821
▁Конобе	-12.9821
олмова	-12.9823
▁Юкковск	-12.9823
Дзержинского	-12.9825
▁Вольг	-12.9825
▁Юргинск	-12.9844
▁Шенкурск	-12.9845
Административная	-12.9852
▁Артековск	-12.9852
▁усадьбы	-12.9852
▁Плякина	-12.9852
▁Табачн	-12.9867
▁Игарская	-12.9882
▁Молочный	-12.9882
▁Мубар	-12.9882
▁Коржев	-12.9883
▁Бигич	-12.9884
атоли	-12.9889
▁Расту	-12.9892
▁Здоровь	-12.9898
ефанов	-12.99
▁Заюков	-12.9905
▁Большак	-12.991
▁Бригада	-12.9913
▁Ельники	-12.9913
▁Заболотье	-12.9913
▁НГДУ	-12.9913
▁Погорелка	-12.9913
▁Сущёв	-12.9913
Яковлева	-12.9917
▁Пятовск	-12.9918
▁Стерлибашев	-12.9922
Степанова	-12.9938
Мальсагова	-12.9943
▁Вымпел	-12.9943
▁ГСПК	-12.9943
▁Угдан	-12.9943
▁Углян	-12.9943
Кардоник	-12.9943
Приборостроитель	-12.9945
▁Филатов	-12.9945
▁Книпович	-12.9974
▁Профессиональн	-12.9974
▁Запарин	-12.9974
▁Хлоп	-12.9974
▁Михали	-12.9976
Прокопьева	-13.0005
булатово	-13.0005
▁Ачалук	-13.0005
▁Киселевка	-13.0005
▁Баландин	-13.0005
▁Корецко	-13.0006
▁Баулинск	-13.0007
▁Революционер	-13.0036
▁Сивашск	-13.0036
▁Астафьев	-13.0036
▁Робе	-13.0036
▁Саида	-13.0036
▁Астахов	-13.0036
▁Калевал	-13.0061
▁Попутн	-13.0067
▁Коспашск	-13.0067
▁Кайдалов	-13.0067
▁Чаща	-13.0067
Фоменко	-13.0067
▁Гольцов	-13.0067
▁Мансур	-13.0068
▁Ураев	-13.0073
Несветайск	-13.0092
▁Словцов	-13.0098
▁Дракино	-13.0098
▁Тишан	-13.0098
▁Головато	-13.0099
▁Курчанск	-13.0103
▁Душе	-13.0108
▁Сороч	-13.0117
▁Виноградн	-13.0124
сюнино	-13.0128
▁Васькино	-13.0129
▁Задорожн	-13.0129
▁Инзер	-13.0129
▁Змиёв	-13.0129
▁Боровлян	-13.013
▁Гауге	-13.013
▁Токсов	-13.0131
▁Кондомск	-13.0132
▁Сукко	-13.0135
▁Карманов	-13.0136
▁Бокин	-13.0141
Животноводов	-13.0161
▁Гусинобродск	-13.0161
▁Метизник	-13.0161
▁Соловьиный	-13.0161
▁Фронта	-13.0161
▁Кневи	-13.0161
▁Мотяково	-13.0161
▁Сухарная	-13.0161
▁Дергаев	-13.0161
▁Неапол	-13.0161
▁Стрельц	-13.0164
▁Калевальск	-13.0168
▁Вавож	-13.0172
▁Казбек	-13.0175
▁Товарищеск	-13.0186
▁Пехот	-13.019
▁Ласьвинск	-13.0192
▁Национальн	-13.0192
▁Теберд	-13.0192
▁Оловозаводск	-13.0192
Кузьмина	-13.0198
▁Путеец	-13.0224
Асламас	-13.0224
▁Асафьев	-13.0224
▁Демонстраци	-13.0224
▁космо	-13.0224
▁Новлян	-13.0224
▁Пижма	-13.0224
▁Ульянин	-13.0225
Уральская	-13.023
одшипников	-13.0233
▁Шамшин	-13.0237
▁Черемис	-13.0243
Яшин	-13.0244
летин	-13.0245
▁Мелентьев	-13.0255
▁Скрип	-13.0255
▁Мостовик	-13.0255
▁Слеп	-13.0256
▁Семьи	-13.0257
▁Дорогин	-13.0257
пасателей	-13.0258
▁речк	-13.0264
▁Сенюков	-13.0278
▁Алексеевск	-13.0282
▁Меньшиков	-13.0287
▁Поздняков	-13.0287
▁Арматурн	-13.0287
▁МЖК	-13.0287
▁Подшиб	-13.0287
▁Шашин	-13.0302
▁Степаньков	-13.0305
▁Оранжере	-13.0319
▁Зырянк	-13.0319
▁Соленое	-13.0319
Орудьево	-13.0319
Небуг	-13.032
ряш	-13.0341
строевский	-13.0343
▁Ключевск	-13.0343
▁Пресненский	-13.0351
▁Тургояк	-13.0351
▁Фирсова	-13.0351
▁Родионов	-13.0352
▁Орловско	-13.0353
▁Металлургическ	-13.0357
Павлова	-13.0358
▁Лесунов	-13.0364
▁Иволгинск	-13.0378
▁Поперечно	-13.0383
Мектеб	-13.0383
▁Авдотьин	-13.0383
▁Лодочная	-13.0383
▁Адмиралтейск	-13.0383
▁Погодин	-13.0383
▁Томилов	-13.0387
▁Орбел	-13.0393
ендяев	-13.0412
▁Пахомов	-13.0415
▁Лозово	-13.0415
▁Новороманов	-13.0415
▁Борщев	-13.0416
▁Баскаков	-13.0417
▁Джу	-13.0419
Гафури	-13.0422
▁Зилаир	-13.0428
Чишма	-13.0436
▁Великанов	-13.0438
▁Криничн	-13.0447
▁Рокотов	-13.0447
▁Зверосовхоз	-13.0447
▁Скуратов	-13.0447
▁Мингаже	-13.0448
▁Буранн	-13.0451
▁Костыл	-13.0457
▁Багратионовск	-13.0475
▁Гладышев	-13.048
▁Переулок	-13.048
▁Тихомирова	-13.048
▁Федеративная	-13.048
▁Швейник	-13.048
▁Столбов	-13.0487
▁Шеметов	-13.0491
▁Влад	-13.0494
урсантов	-13.0509
ысоев	-13.051
▁Ашхабадск	-13.0512
▁Верхнесал	-13.0512
▁ДЗФС	-13.0512
▁Дроздов	-13.0512
▁Фосфоритн	-13.0512
▁Строганов	-13.0512
▁Кирпичн	-13.0525
▁Игумнов	-13.0545
▁Старокучер	-13.0545
▁Бартенев	-13.0545
▁Клиническ	-13.057
Печер	-13.057
Новосинеглазов	-13.0577
▁Вагжанов	-13.0577
▁Черкасское	-13.0577
▁Жиганск	-13.0577
Станкозаводская	-13.0577
ашви	-13.0577
▁Новогородская	-13.0577
▁Пастухов	-13.0577
▁Кудьм	-13.0578
▁Муллов	-13.058
▁Бабакин	-13.0584
окшайск	-13.0603
Волконско	-13.0606
Эвен	-13.0608
▁Кукшум	-13.061
▁Ворошиловский	-13.061
▁Теплая	-13.061
▁Мосолов	-13.061
▁Крисанов	-13.061
елканов	-13.063
▁Пахот	-13.0643
▁Маджалис	-13.0643
▁Русь	-13.0643
▁Тростян	-13.0643
▁Шайг	-13.066
▁Биолог	-13.0676
▁Наугорск	-13.0676
▁Трикотажн	-13.0676
▁Хребтов	-13.0676
▁Траш	-13.0676
▁Есен	-13.0678
Набережная	-13.0685
евщин	-13.069
зерки	-13.0704
ССР	-13.0706
▁Кугульт	-13.0709
▁Наседкин	-13.0709
▁Погодаев	-13.0709
▁Виноградово	-13.0709
▁Зальц	-13.0709
▁Милиционер	-13.0709
▁Плахот	-13.0709
▁Расцвет	-13.0709
▁Сокольническая	-13.0709
▁Хакурате	-13.0709
▁овраг	-13.0709
▁Касаткин	-13.0709
▁Шеморд	-13.071
Перовской	-13.0718
▁Парабель	-13.0724
▁Магистраль	-13.0737
▁Кошелев	-13.0737
▁Апраксин	-13.0742
▁Никульское	-13.0742
▁Пансионат	-13.0742
▁Протопопов	-13.0742
▁Сатурн	-13.0742
ильчаков	-13.0743
▁Черемуш	-13.0749
▁Евсин	-13.0751
▁Гальч	-13.0755
▁Путей	-13.0759
▁Докузпаринский	-13.0776
▁Итальянск	-13.0776
▁Филевская	-13.0776
▁Эльхотов	-13.0776
▁Гуляй	-13.0776
▁Хойто	-13.0776
▁Эстонск	-13.0776
▁Карташов	-13.0776
ифрин	-13.0781
▁Новокиев	-13.0785
Мойки	-13.0786
▁Выгон	-13.0799
▁Трубачеев	-13.0809
▁Шавров	-13.0809
ручей	-13.081
Павловское	-13.0819
▁Глинищев	-13.0838
▁Шошин	-13.084
▁Тополе	-13.0841
▁Поддубно	-13.0843
Водозабор	-13.0843
▁Балыклей	-13.0843
▁Овсянниково	-13.0843
бывш	-13.0843
Тюбе	-13.0843
▁Куракин	-13.0869
▁Затеречн	-13.0876
▁Арктика	-13.0876
▁Ораниенбаумск	-13.0876
▁Порошино	-13.0876
▁Сергеляхское	-13.0876
▁Новеньк	-13.0877
▁ключ	-13.0901
Зиняк	-13.0901
▁Автоматик	-13.091
▁Геофизическ	-13.091
▁Провиден	-13.091
▁Угольщиков	-13.091
▁Тёсов	-13.091
▁Москвитин	-13.091
▁Россия	-13.091
▁Яндар	-13.0912
▁Полубояр	-13.0944
▁Епифан	-13.0944
▁Бердяуш	-13.0944
▁Вторые	-13.0944
▁Ивлиева	-13.0944
▁Иволга	-13.0944
▁Новоегорьевск	-13.0944
Лучинско	-13.0944
Рекшино	-13.0945
▁Змеев	-13.0945
▁Пляжн	-13.0946
▁Радиозаводск	-13.0964
Останкинский	-13.0978
▁Санаторный	-13.0978
▁Коробицын	-13.0978
▁Сушан	-13.098
▁Бурмакин	-13.098
▁Ляхов	-13.0987
Цеткин	-13.0989
Транспортная	-13.0989
рджани	-13.0994
▁Сахзавод	-13.1012
Лозовское	-13.1012
▁Колымск	-13.1013
▁Черемно	-13.1016
Ямнов	-13.1017
▁Мичурин	-13.1019
▁Катаев	-13.1028
▁Косулин	-13.1028
▁Дульдург	-13.1032
▁Рудаков	-13.1033
▁Зональн	-13.1044
▁Гизель	-13.1047
▁Хвощ	-13.1047
▁Кочнев	-13.1065
▁Луговско	-13.107
ильдеев	-13.1074
западный	-13.1081
▁Археолог	-13.1081
▁Выдрин	-13.1081
▁Дорофеев	-13.1081
▁Заозерное	-13.1081
▁Злынк	-13.1089
▁Теткин	-13.1097
Рудян	-13.1111
▁Люсиновск	-13.1115
▁Бронев	-13.1116
▁Новосёлов	-13.1116
▁Жернов	-13.1116
▁Современн	-13.1116
оболь	-13.1117
▁Залегощ	-13.112
▁Онгудай	-13.1133
▁Новощерб	-13.1134
▁Грицов	-13.1137
▁Овощехранилище	-13.115
▁Кабаков	-13.1151
тический	-13.1163
▁Минеев	-13.1176
рошевского	-13.1179
▁Ройк	-13.1182
▁Сергокал	-13.1182
▁Замостье	-13.1185
▁Увек	-13.1185
Писцово	-13.1185
▁Чермен	-13.1185
▁Медян	-13.1196
▁Угра	-13.1212
▁Байрам	-13.122
Большие	-13.1232
▁Сарманов	-13.1242
авдинск	-13.1251
▁Самохвалов	-13.1254
Базоркина	-13.1255
▁Кудашев	-13.1258
ршта	-13.1262
▁Вертковск	-13.1264
▁Палатк	-13.127
▁Киреев	-13.1281
▁Архипо	-13.1285
▁Фавор	-13.129
▁Камвольный	-13.129
▁Экспресс	-13.129
▁Пушанин	-13.129
▁Донду	-13.129
▁Галерн	-13.1291
▁Барыкин	-13.1293
▁Потьм	-13.1301
▁Артюшков	-13.1325
▁Ветеринарная	-13.1325
▁Мнёвники	-13.1325
▁Обводный	-13.1325
▁Поспелов	-13.1325
▁Прямицын	-13.1325
▁предместь	-13.1325
▁Травян	-13.1325
▁Крутояр	-13.1325
▁Зинаид	-13.1325
▁Евсеев	-13.1325
▁Заболотн	-13.1325
Ермакова	-13.1334
▁Оловянн	-13.1337
рюм	-13.1345
▁Хохряк	-13.1357
▁Прядильная	-13.136
▁Фонвизин	-13.136
▁Шостак	-13.136
ровокзальн	-13.1363
▁Красносел	-13.1379
▁Политотдельск	-13.1396
▁Вагнера	-13.1396
▁Ранняя	-13.1396
▁Сосенки	-13.1396
▁Ташкентский	-13.1396
▁Гжель	-13.1396
▁Новодеревян	-13.14
▁Самашки	-13.1404
снин	-13.1412
▁Антипин	-13.1415
▁Панкруших	-13.1415
▁Дьяченко	-13.1431
Исмагилов	-13.1431
▁Горькая	-13.1431
▁Флора	-13.1431
▁Голенчин	-13.1431
▁берег	-13.1431
▁Крыгин	-13.1432
▁Житн	-13.1437
Ивановка	-13.1445
Осипенко	-13.1445
▁Тенгин	-13.1465
▁Бердигестях	-13.1467
▁Дивноморск	-13.1467
пышминск	-13.1467
▁Зосимов	-13.1467
▁Кащеево	-13.1467
▁Развильн	-13.1467
Озек	-13.1467
▁Святослав	-13.1475
▁Голубятников	-13.1503
▁Заворонежск	-13.1503
▁Пырьев	-13.1503
▁Гамурзиев	-13.1503
▁Канонер	-13.1503
▁Ученическ	-13.1503
▁Автогенн	-13.1503
Калитвенское	-13.1506
▁Песоченск	-13.1539
стоянок	-13.1539
▁Зернова	-13.1539
▁Змейка	-13.1539
▁Конечная	-13.1539
▁Приозёрный	-13.1539
▁Кочетово	-13.1539
▁Есип	-13.1539
▁Козьм	-13.154
Мещерск	-13.154
▁Пелаг	-13.154
▁Антипов	-13.1547
▁Паньков	-13.1551
▁Колодез	-13.1557
▁Динамо	-13.157
▁Декоративн	-13.1575
▁Певек	-13.1575
▁Пречисто	-13.1575
▁Порядин	-13.1575
тыгашев	-13.1575
▁Рачков	-13.1575
▁Буданов	-13.1576
▁Хрю	-13.1578
▁Комбайно	-13.158
▁Нефте	-13.1593
▁Иристон	-13.1611
▁останов	-13.1611
▁Клетск	-13.1616
▁Поныр	-13.1636
▁Гольян	-13.1644
▁Духовщин	-13.1644
Уральского	-13.1647
▁Тундров	-13.1647
▁Новоколом	-13.1647
▁Пробуждени	-13.1647
▁Горчаков	-13.1648
▁Чегл	-13.1648
Кумохин	-13.165
▁Кобрин	-13.1654
Чапаева	-13.1663
▁Калитников	-13.1684
▁Фрязевск	-13.1684
▁Усадебная	-13.1684
▁сторона	-13.1684
▁Висим	-13.1684
▁Приамурск	-13.1684
ёнов	-13.1707
▁Пересып	-13.1721
▁Зерново	-13.1721
▁Ручьева	-13.1721
▁Юпитер	-13.1721
▁Коммунальщик	-13.1721
Заостров	-13.1721
▁Жорн	-13.1731
▁Высоцк	-13.1735
Казанская	-13.1737
▁Нефедов	-13.1757
втомотолюбитель	-13.1757
мурзаева	-13.1757
▁Песьян	-13.1757
▁Козьмодемьянов	-13.1757
▁Озим	-13.1757
▁Лисицын	-13.1758
▁Сентюр	-13.1794
▁Шершнев	-13.1794
▁Житков	-13.1795
больниц	-13.1795
▁Аллеро	-13.1795
▁Старатель	-13.1795
▁Рыжков	-13.1795
▁Мешков	-13.1801
▁Свири	-13.1807
промышленная	-13.1811
Камчатск	-13.1811
▁Кононов	-13.1811
▁Сюмси	-13.1828
▁Белоглазов	-13.1831
▁Новознамен	-13.1831
▁Отделение	-13.1831
▁Пятихатк	-13.1831
▁Иультинск	-13.1831
▁Рыночн	-13.1831
▁Тенькинск	-13.1831
▁Детчин	-13.1833
креп	-13.1841
▁Привал	-13.1846
Карамзин	-13.1848
▁Ерыкл	-13.1868
▁Кишиневская	-13.1868
▁Теплый	-13.1868
▁Елизаветов	-13.1868
▁Колыбел	-13.1868
▁Тимохин	-13.1869
▁Опалихин	-13.1906
▁Стабильн	-13.1906
▁Леонти	-13.1906
▁урочище	-13.1906
▁Лесовод	-13.1906
гапуров	-13.1906
▁Гривенск	-13.1907
▁Ковалёв	-13.1913
▁Стрелочн	-13.1925
▁Судислав	-13.1929
▁Дунаев	-13.193
▁милици	-13.1943
▁Колтушское	-13.1943
▁Штаб	-13.1943
▁Якорь	-13.1943
▁Бастионн	-13.1943
▁Ялунин	-13.1943
▁Чижик	-13.1944
▁Соборн	-13.1956
▁Гладк	-13.1978
▁Тренев	-13.1981
▁Литературн	-13.1981
▁Новоандреев	-13.1981
▁Подберезье	-13.1981
▁пятилетки	-13.1981
▁Проходчик	-13.1981
▁Дербен	-13.1982
▁Кухм	-13.1983
▁Ермиш	-13.1999
▁Рябинов	-13.2006
▁Черниговско	-13.2011
▁Помялов	-13.2018
▁Ястребов	-13.2018
▁Глотов	-13.2019
▁Прибельск	-13.2019
▁Бринько	-13.202
▁Ботов	-13.2024
▁Субханкулов	-13.2056
▁Сухонская	-13.2056
▁Арефино	-13.2094
▁волость	-13.2094
▁Вяткин	-13.2095
▁Казацк	-13.2104
▁Калтас	-13.2104
▁Пономар	-13.2114
▁Туркмен	-13.2119
Крутиха	-13.2122
Сельхозтехники	-13.2133
▁Дибун	-13.2133
▁Касумкент	-13.2133
▁Новогеоргиевка	-13.2133
▁Паромная	-13.2133
▁Тунгус	-13.2133
▁Черешн	-13.2133
Кумух	-13.2146
▁Кирилл	-13.215
▁Гродненск	-13.2171
▁Каменногорск	-13.2171
▁Спектр	-13.2171
▁Эдуард	-13.2171
▁санаторий	-13.2171
▁Ахмеров	-13.2171
▁Мастеров	-13.2171
▁Черницын	-13.2171
фёров	-13.2171
▁Полярник	-13.2172
▁Голышев	-13.2181
Васильева	-13.219
▁Прогрессивн	-13.2209
▁Педагогическ	-13.2209
▁Солотч	-13.2209
▁Забойщик	-13.221
▁Кокорин	-13.221
▁Кавалер	-13.2216
▁Шиманов	-13.2218
▁Граждан	-13.2218
восточн	-13.2234
▁Медвен	-13.2235
▁Харлов	-13.2243
▁Байбакова	-13.2248
▁Заклинье	-13.2248
▁Леспромхоз	-13.2248
▁Подосинки	-13.2248
▁Лихачёв	-13.2248
▁Юмагу	-13.2248
▁Электролитн	-13.2248
▁Синьял	-13.2248
▁Бережно	-13.2251
